<?xml version="1.0" encoding="utf-8"?>
<NeuralNetwork>
    <Algorithm>BP</Algorithm>
    <Layer>
        <Input>
            <InputNodeCount>27</InputNodeCount>
            <Weight>
                <I-1-1>1.564978</I-1-1>
                <I-1-2>2.857823</I-1-2>
                <I-1-3>6.067677</I-1-3>
                <I-1-4>-0.8165626</I-1-4>
                <I-1-5>-2.398885</I-1-5>
                <I-1-6>1.837981</I-1-6>
                <I-1-7>-1.004108</I-1-7>
                <I-1-8>0.9150164</I-1-8>
                <I-1-9>2.617447</I-1-9>
                <I-1-10>-1.388952</I-1-10>
                <I-1-11>2.39875</I-1-11>
                <I-1-12>1.183194</I-1-12>
                <I-1-13>1.44683</I-1-13>
                <I-2-1>1.571561</I-2-1>
                <I-2-2>0.2730841</I-2-2>
                <I-2-3>-2.025746</I-2-3>
                <I-2-4>1.152743</I-2-4>
                <I-2-5>0.8233612</I-2-5>
                <I-2-6>0.5114731</I-2-6>
                <I-2-7>-1.097439</I-2-7>
                <I-2-8>2.015728</I-2-8>
                <I-2-9>-0.6787117</I-2-9>
                <I-2-10>-4.517122</I-2-10>
                <I-2-11>1.394611</I-2-11>
                <I-2-12>3.940254</I-2-12>
                <I-2-13>-0.7478198</I-2-13>
                <I-3-1>-0.3252788</I-3-1>
                <I-3-2>-1.588586</I-3-2>
                <I-3-3>-2.271406</I-3-3>
                <I-3-4>0.5700783</I-3-4>
                <I-3-5>-1.62593</I-3-5>
                <I-3-6>3.163131</I-3-6>
                <I-3-7>1.845878</I-3-7>
                <I-3-8>-0.2274097</I-3-8>
                <I-3-9>-1.004939</I-3-9>
                <I-3-10>3.588387</I-3-10>
                <I-3-11>2.265391</I-3-11>
                <I-3-12>0.4494233</I-3-12>
                <I-3-13>-0.2120801</I-3-13>
                <I-4-1>3.562857</I-4-1>
                <I-4-2>2.093682</I-4-2>
                <I-4-3>4.606759</I-4-3>
                <I-4-4>1.992437</I-4-4>
                <I-4-5>1.920314</I-4-5>
                <I-4-6>0.4509594</I-4-6>
                <I-4-7>0.7647198</I-4-7>
                <I-4-8>-0.3295686</I-4-8>
                <I-4-9>0.4551038</I-4-9>
                <I-4-10>1.213665</I-4-10>
                <I-4-11>3.112147</I-4-11>
                <I-4-12>-1.103286</I-4-12>
                <I-4-13>1.638222</I-4-13>
                <I-5-1>-0.639728</I-5-1>
                <I-5-2>1.599809</I-5-2>
                <I-5-3>3.77551</I-5-3>
                <I-5-4>-0.1669787</I-5-4>
                <I-5-5>1.473776</I-5-5>
                <I-5-6>-0.7851964</I-5-6>
                <I-5-7>-1.586517</I-5-7>
                <I-5-8>2.292219</I-5-8>
                <I-5-9>-0.1995046</I-5-9>
                <I-5-10>0.6357977</I-5-10>
                <I-5-11>1.087823</I-5-11>
                <I-5-12>1.485706</I-5-12>
                <I-5-13>0.6538043</I-5-13>
                <I-6-1>-0.6261698</I-6-1>
                <I-6-2>-0.8506621</I-6-2>
                <I-6-3>-0.3860681</I-6-3>
                <I-6-4>-1.506241</I-6-4>
                <I-6-5>0.1424367</I-6-5>
                <I-6-6>1.460304</I-6-6>
                <I-6-7>2.980413</I-6-7>
                <I-6-8>0.5896104</I-6-8>
                <I-6-9>0.6602917</I-6-9>
                <I-6-10>-0.4102262</I-6-10>
                <I-6-11>-4.916336</I-6-11>
                <I-6-12>0.9911083</I-6-12>
                <I-6-13>-0.02102776</I-6-13>
                <I-7-1>-0.2261316</I-7-1>
                <I-7-2>1.745476</I-7-2>
                <I-7-3>-0.8942286</I-7-3>
                <I-7-4>2.514469</I-7-4>
                <I-7-5>-2.908876</I-7-5>
                <I-7-6>2.574027</I-7-6>
                <I-7-7>0.4972845</I-7-7>
                <I-7-8>3.506313</I-7-8>
                <I-7-9>-0.2637793</I-7-9>
                <I-7-10>-2.567719</I-7-10>
                <I-7-11>-0.5737605</I-7-11>
                <I-7-12>4.67119</I-7-12>
                <I-7-13>3.645264</I-7-13>
                <I-8-1>3.453623</I-8-1>
                <I-8-2>1.533558</I-8-2>
                <I-8-3>-3.574223</I-8-3>
                <I-8-4>2.041635</I-8-4>
                <I-8-5>2.732778</I-8-5>
                <I-8-6>-2.310629</I-8-6>
                <I-8-7>-1.595808</I-8-7>
                <I-8-8>-3.06836</I-8-8>
                <I-8-9>0.19959</I-8-9>
                <I-8-10>-1.632252</I-8-10>
                <I-8-11>-3.297096</I-8-11>
                <I-8-12>-4.00358</I-8-12>
                <I-8-13>-0.5521254</I-8-13>
                <I-9-1>2.33047</I-9-1>
                <I-9-2>1.933186</I-9-2>
                <I-9-3>2.53566</I-9-3>
                <I-9-4>0.3137926</I-9-4>
                <I-9-5>3.459463</I-9-5>
                <I-9-6>5.431853</I-9-6>
                <I-9-7>0.4322988</I-9-7>
                <I-9-8>0.5290707</I-9-8>
                <I-9-9>1.804003</I-9-9>
                <I-9-10>0.2440125</I-9-10>
                <I-9-11>-1.979569</I-9-11>
                <I-9-12>-4.3083</I-9-12>
                <I-9-13>-1.668455</I-9-13>
                <I-10-1>0.6362551</I-10-1>
                <I-10-2>-1.098439</I-10-2>
                <I-10-3>-4.890929</I-10-3>
                <I-10-4>-1.167018</I-10-4>
                <I-10-5>4.022501</I-10-5>
                <I-10-6>3.750326</I-10-6>
                <I-10-7>0.2007839</I-10-7>
                <I-10-8>3.292025</I-10-8>
                <I-10-9>1.702417</I-10-9>
                <I-10-10>0.8242835</I-10-10>
                <I-10-11>3.937176</I-10-11>
                <I-10-12>-3.153803</I-10-12>
                <I-10-13>-0.6806739</I-10-13>
                <I-11-1>4.571121</I-11-1>
                <I-11-2>-2.934219</I-11-2>
                <I-11-3>-0.6122489</I-11-3>
                <I-11-4>-2.503498</I-11-4>
                <I-11-5>4.262857</I-11-5>
                <I-11-6>-0.6361652</I-11-6>
                <I-11-7>0.923555</I-11-7>
                <I-11-8>1.035642</I-11-8>
                <I-11-9>-3.101703</I-11-9>
                <I-11-10>0.5881174</I-11-10>
                <I-11-11>-2.641366</I-11-11>
                <I-11-12>-2.792574</I-11-12>
                <I-11-13>1.600212</I-11-13>
                <I-12-1>5.259663</I-12-1>
                <I-12-2>-4.906156</I-12-2>
                <I-12-3>-3.845366</I-12-3>
                <I-12-4>-6.930691</I-12-4>
                <I-12-5>0.4992341</I-12-5>
                <I-12-6>2.735705</I-12-6>
                <I-12-7>-1.872681</I-12-7>
                <I-12-8>7.091026</I-12-8>
                <I-12-9>3.721516</I-12-9>
                <I-12-10>2.852661</I-12-10>
                <I-12-11>-5.73368</I-12-11>
                <I-12-12>0.5524507</I-12-12>
                <I-12-13>3.515131</I-12-13>
                <I-13-1>-4.041605</I-13-1>
                <I-13-2>-1.1306</I-13-2>
                <I-13-3>-0.4987365</I-13-3>
                <I-13-4>-1.958885</I-13-4>
                <I-13-5>3.320129</I-13-5>
                <I-13-6>-0.2330254</I-13-6>
                <I-13-7>0.3356457</I-13-7>
                <I-13-8>-2.638837</I-13-8>
                <I-13-9>2.168751</I-13-9>
                <I-13-10>4.09784</I-13-10>
                <I-13-11>2.064919</I-13-11>
                <I-13-12>-1.061852</I-13-12>
                <I-13-13>1.884861</I-13-13>
                <I-14-1>-2.22382</I-14-1>
                <I-14-2>-0.941193</I-14-2>
                <I-14-3>-0.9667484</I-14-3>
                <I-14-4>-2.32032</I-14-4>
                <I-14-5>2.692753</I-14-5>
                <I-14-6>-0.7588218</I-14-6>
                <I-14-7>-1.481387</I-14-7>
                <I-14-8>-1.240468</I-14-8>
                <I-14-9>1.074757</I-14-9>
                <I-14-10>-2.455548</I-14-10>
                <I-14-11>3.609574</I-14-11>
                <I-14-12>-3.615773</I-14-12>
                <I-14-13>-2.310716</I-14-13>
                <I-15-1>0.3574686</I-15-1>
                <I-15-2>0.02379347</I-15-2>
                <I-15-3>-0.6187612</I-15-3>
                <I-15-4>2.242802</I-15-4>
                <I-15-5>2.048063</I-15-5>
                <I-15-6>-2.752707</I-15-6>
                <I-15-7>0.5561385</I-15-7>
                <I-15-8>1.942978</I-15-8>
                <I-15-9>-1.175773</I-15-9>
                <I-15-10>-4.010654</I-15-10>
                <I-15-11>-1.274261</I-15-11>
                <I-15-12>-4.571684</I-15-12>
                <I-15-13>-2.289962</I-15-13>
                <I-16-1>-1.840745</I-16-1>
                <I-16-2>-1.389053</I-16-2>
                <I-16-3>0.3404762</I-16-3>
                <I-16-4>2.172472</I-16-4>
                <I-16-5>0.1399221</I-16-5>
                <I-16-6>-0.2029815</I-16-6>
                <I-16-7>1.497892</I-16-7>
                <I-16-8>4.232887</I-16-8>
                <I-16-9>-2.051784</I-16-9>
                <I-16-10>-3.36556</I-16-10>
                <I-16-11>-1.584838</I-16-11>
                <I-16-12>-0.02144499</I-16-12>
                <I-16-13>-1.831878</I-16-13>
                <I-17-1>-0.2066243</I-17-1>
                <I-17-2>-1.141225</I-17-2>
                <I-17-3>-1.871887</I-17-3>
                <I-17-4>-2.237978</I-17-4>
                <I-17-5>-0.6149775</I-17-5>
                <I-17-6>3.221828</I-17-6>
                <I-17-7>4.606255</I-17-7>
                <I-17-8>-1.915147</I-17-8>
                <I-17-9>2.536167</I-17-9>
                <I-17-10>0.89412</I-17-10>
                <I-17-11>-0.05577799</I-17-11>
                <I-17-12>-2.212396</I-17-12>
                <I-17-13>1.534874</I-17-13>
                <I-18-1>0.7474855</I-18-1>
                <I-18-2>0.6418836</I-18-2>
                <I-18-3>10.56873</I-18-3>
                <I-18-4>1.388278</I-18-4>
                <I-18-5>-2.621667</I-18-5>
                <I-18-6>4.394719</I-18-6>
                <I-18-7>4.105603</I-18-7>
                <I-18-8>0.739333</I-18-8>
                <I-18-9>0.3620075</I-18-9>
                <I-18-10>-3.37599</I-18-10>
                <I-18-11>1.186419</I-18-11>
                <I-18-12>-3.282318</I-18-12>
                <I-18-13>2.216338</I-18-13>
                <I-19-1>-0.786671</I-19-1>
                <I-19-2>1.066675</I-19-2>
                <I-19-3>0.6986212</I-19-3>
                <I-19-4>2.153965</I-19-4>
                <I-19-5>-1.140744</I-19-5>
                <I-19-6>-2.184704</I-19-6>
                <I-19-7>-4.031055</I-19-7>
                <I-19-8>-0.5004389</I-19-8>
                <I-19-9>-0.4024037</I-19-9>
                <I-19-10>-1.898977</I-19-10>
                <I-19-11>-0.3753387</I-19-11>
                <I-19-12>3.163615</I-19-12>
                <I-19-13>0.9872561</I-19-13>
                <I-20-1>1.733584</I-20-1>
                <I-20-2>-2.958324</I-20-2>
                <I-20-3>-6.308795</I-20-3>
                <I-20-4>1.21222</I-20-4>
                <I-20-5>-0.6895572</I-20-5>
                <I-20-6>-4.154027</I-20-6>
                <I-20-7>1.809083</I-20-7>
                <I-20-8>0.3683524</I-20-8>
                <I-20-9>-3.736077</I-20-9>
                <I-20-10>-4.08368</I-20-10>
                <I-20-11>0.5202971</I-20-11>
                <I-20-12>1.98127</I-20-12>
                <I-20-13>0.4993425</I-20-13>
                <I-21-1>-1.68472</I-21-1>
                <I-21-2>-0.1380212</I-21-2>
                <I-21-3>0.832045</I-21-3>
                <I-21-4>0.8213614</I-21-4>
                <I-21-5>0.5202129</I-21-5>
                <I-21-6>-0.2458112</I-21-6>
                <I-21-7>2.187081</I-21-7>
                <I-21-8>-1.731375</I-21-8>
                <I-21-9>-0.1818354</I-21-9>
                <I-21-10>3.788811</I-21-10>
                <I-21-11>-2.599513</I-21-11>
                <I-21-12>0.4708744</I-21-12>
                <I-21-13>4.666757</I-21-13>
                <I-22-1>-0.0153582</I-22-1>
                <I-22-2>-0.1159417</I-22-2>
                <I-22-3>5.706248</I-22-3>
                <I-22-4>3.837683</I-22-4>
                <I-22-5>0.5654013</I-22-5>
                <I-22-6>-1.766948</I-22-6>
                <I-22-7>-0.03041983</I-22-7>
                <I-22-8>-0.4250896</I-22-8>
                <I-22-9>2.536485</I-22-9>
                <I-22-10>6.42454</I-22-10>
                <I-22-11>3.068741</I-22-11>
                <I-22-12>0.255625</I-22-12>
                <I-22-13>3.101356</I-22-13>
                <I-23-1>-0.3637552</I-23-1>
                <I-23-2>0.3402431</I-23-2>
                <I-23-3>-4.914243</I-23-3>
                <I-23-4>-3.862718</I-23-4>
                <I-23-5>0.9204094</I-23-5>
                <I-23-6>1.071</I-23-6>
                <I-23-7>1.119227</I-23-7>
                <I-23-8>0.05840147</I-23-8>
                <I-23-9>2.028842</I-23-9>
                <I-23-10>5.132241</I-23-10>
                <I-23-11>-1.311245</I-23-11>
                <I-23-12>1.749324</I-23-12>
                <I-23-13>0.055503</I-23-13>
                <I-24-1>-1.907648</I-24-1>
                <I-24-2>-0.07512423</I-24-2>
                <I-24-3>-7.599765</I-24-3>
                <I-24-4>5.260678</I-24-4>
                <I-24-5>7.106703</I-24-5>
                <I-24-6>-2.639838</I-24-6>
                <I-24-7>4.081428</I-24-7>
                <I-24-8>2.911148</I-24-8>
                <I-24-9>3.764799</I-24-9>
                <I-24-10>3.741917</I-24-10>
                <I-24-11>2.943323</I-24-11>
                <I-24-12>-5.049611</I-24-12>
                <I-24-13>3.824617</I-24-13>
                <I-25-1>3.04884</I-25-1>
                <I-25-2>4.6249</I-25-2>
                <I-25-3>3.342102</I-25-3>
                <I-25-4>3.119301</I-25-4>
                <I-25-5>3.024479</I-25-5>
                <I-25-6>0.6238967</I-25-6>
                <I-25-7>1.530609</I-25-7>
                <I-25-8>0.2081511</I-25-8>
                <I-25-9>0.7884879</I-25-9>
                <I-25-10>-5.443925</I-25-10>
                <I-25-11>1.078972</I-25-11>
                <I-25-12>-3.074648</I-25-12>
                <I-25-13>-0.5435637</I-25-13>
                <I-26-1>-2.321421</I-26-1>
                <I-26-2>-1.693358</I-26-2>
                <I-26-3>1.420407</I-26-3>
                <I-26-4>0.011677</I-26-4>
                <I-26-5>-0.7071291</I-26-5>
                <I-26-6>-3.982901</I-26-6>
                <I-26-7>-2.276616</I-26-7>
                <I-26-8>-0.3654418</I-26-8>
                <I-26-9>-1.755622</I-26-9>
                <I-26-10>1.830375</I-26-10>
                <I-26-11>-0.3970216</I-26-11>
                <I-26-12>1.368187</I-26-12>
                <I-26-13>0.1673412</I-26-13>
                <I-27-1>-2.612777</I-27-1>
                <I-27-2>-2.588971</I-27-2>
                <I-27-3>-1.175767</I-27-3>
                <I-27-4>-3.181854</I-27-4>
                <I-27-5>-3.231988</I-27-5>
                <I-27-6>4.181704</I-27-6>
                <I-27-7>-0.6413012</I-27-7>
                <I-27-8>1.306499</I-27-8>
                <I-27-9>-3.369039</I-27-9>
                <I-27-10>0.1789946</I-27-10>
                <I-27-11>-3.361331</I-27-11>
                <I-27-12>-0.2564771</I-27-12>
                <I-27-13>-6.123811</I-27-13>
            </Weight>
        </Input>
        <Hidden>
            <HiddenNodeCount>13</HiddenNodeCount>
            <Weight>
                <H-1-1>4.545257</H-1-1>
                <H-1-2>3.748266</H-1-2>
                <H-1-3>1.352605</H-1-3>
                <H-1-4>4.602269</H-1-4>
                <H-2-1>-5.17235</H-2-1>
                <H-2-2>-1.38364</H-2-2>
                <H-2-3>-6.975902</H-2-3>
                <H-2-4>0.9053932</H-2-4>
                <H-3-1>8.443808</H-3-1>
                <H-3-2>3.313834</H-3-2>
                <H-3-3>3.078886</H-3-3>
                <H-3-4>4.855551</H-3-4>
                <H-4-1>-5.411014</H-4-1>
                <H-4-2>2.326797</H-4-2>
                <H-4-3>3.657201</H-4-3>
                <H-4-4>-0.1913793</H-4-4>
                <H-5-1>2.73262</H-5-1>
                <H-5-2>-1.069317</H-5-2>
                <H-5-3>3.676003</H-5-3>
                <H-5-4>-2.704023</H-5-4>
                <H-6-1>-6.612008</H-6-1>
                <H-6-2>-3.073774</H-6-2>
                <H-6-3>0.1488379</H-6-3>
                <H-6-4>-4.604943</H-6-4>
                <H-7-1>7.835002</H-7-1>
                <H-7-2>2.656604</H-7-2>
                <H-7-3>-2.066238</H-7-3>
                <H-7-4>-3.157036</H-7-4>
                <H-8-1>2.294962</H-8-1>
                <H-8-2>-6.196126</H-8-2>
                <H-8-3>-0.6033977</H-8-3>
                <H-8-4>-2.229003</H-8-4>
                <H-9-1>-3.725754</H-9-1>
                <H-9-2>5.906828</H-9-2>
                <H-9-3>-1.649693</H-9-3>
                <H-9-4>-2.35071</H-9-4>
                <H-10-1>-2.843451</H-10-1>
                <H-10-2>-2.01283</H-10-2>
                <H-10-3>-1.396541</H-10-3>
                <H-10-4>8.317997</H-10-4>
                <H-11-1>4.225775</H-11-1>
                <H-11-2>-7.35785</H-11-2>
                <H-11-3>1.584778</H-11-3>
                <H-11-4>3.692124</H-11-4>
                <H-12-1>4.154062</H-12-1>
                <H-12-2>1.889893</H-12-2>
                <H-12-3>0.7953048</H-12-3>
                <H-12-4>-4.343299</H-12-4>
                <H-13-1>-8.400814</H-13-1>
                <H-13-2>0.2566513</H-13-2>
                <H-13-3>-0.555108</H-13-3>
                <H-13-4>1.197144</H-13-4>
            </Weight>
        </Hidden>
        <Output>
            <OutputNodeCount>4</OutputNodeCount>
        </Output>
    </Layer>
</NeuralNetwork>