<?xml version="1.0" encoding="utf-8"?>
<NeuralNetwork>
    <Algorithm>BP</Algorithm>
    <Layer>
        <Input>
            <InputNodeCount>19</InputNodeCount>
            <Weight>
                <I-1-1>0.3478352</I-1-1>
                <I-1-2>0.2789167</I-1-2>
                <I-1-3>0.09179917</I-1-3>
                <I-1-4>0.1116084</I-1-4>
                <I-1-5>-0.09556158</I-1-5>
                <I-1-6>0.2597784</I-1-6>
                <I-1-7>1.018294</I-1-7>
                <I-1-8>-0.215826</I-1-8>
                <I-1-9>0.8603561</I-1-9>
                <I-2-1>0.08825549</I-2-1>
                <I-2-2>-0.08434302</I-2-2>
                <I-2-3>0.006935135</I-2-3>
                <I-2-4>0.3313661</I-2-4>
                <I-2-5>-0.004513863</I-2-5>
                <I-2-6>-0.2862076</I-2-6>
                <I-2-7>0.254972</I-2-7>
                <I-2-8>0.6674304</I-2-8>
                <I-2-9>-0.6709051</I-2-9>
                <I-3-1>0.2995542</I-3-1>
                <I-3-2>0.05310245</I-3-2>
                <I-3-3>-0.02169709</I-3-3>
                <I-3-4>0.1717141</I-3-4>
                <I-3-5>0.009636706</I-3-5>
                <I-3-6>-0.1276234</I-3-6>
                <I-3-7>1.076679</I-3-7>
                <I-3-8>-0.1250962</I-3-8>
                <I-3-9>0.2348466</I-3-9>
                <I-4-1>0.2878948</I-4-1>
                <I-4-2>-0.06466655</I-4-2>
                <I-4-3>-0.112859</I-4-3>
                <I-4-4>0.4189898</I-4-4>
                <I-4-5>-0.02402504</I-4-5>
                <I-4-6>-0.5954712</I-4-6>
                <I-4-7>0.8646706</I-4-7>
                <I-4-8>1.081366</I-4-8>
                <I-4-9>-1.034383</I-4-9>
                <I-5-1>-0.03778337</I-5-1>
                <I-5-2>0.3303227</I-5-2>
                <I-5-3>0.3398566</I-5-3>
                <I-5-4>0.2008831</I-5-4>
                <I-5-5>0.4325946</I-5-5>
                <I-5-6>1.006015</I-5-6>
                <I-5-7>-0.6692796</I-5-7>
                <I-5-8>0.0715275</I-5-8>
                <I-5-9>1.002128</I-5-9>
                <I-6-1>0.1991269</I-6-1>
                <I-6-2>0.1657631</I-6-2>
                <I-6-3>0.3066383</I-6-3>
                <I-6-4>0.04821478</I-6-4>
                <I-6-5>0.2840626</I-6-5>
                <I-6-6>0.1777654</I-6-6>
                <I-6-7>-0.22464</I-6-7>
                <I-6-8>0.576139</I-6-8>
                <I-6-9>-0.2275111</I-6-9>
                <I-7-1>0.04421793</I-7-1>
                <I-7-2>0.2267905</I-7-2>
                <I-7-3>0.1524469</I-7-3>
                <I-7-4>0.3320954</I-7-4>
                <I-7-5>0.1844678</I-7-5>
                <I-7-6>0.03748058</I-7-6>
                <I-7-7>0.2880071</I-7-7>
                <I-7-8>0.4447408</I-7-8>
                <I-7-9>-0.5700746</I-7-9>
                <I-8-1>0.3312485</I-8-1>
                <I-8-2>0.2134221</I-8-2>
                <I-8-3>0.2247757</I-8-3>
                <I-8-4>-0.008696974</I-8-4>
                <I-8-5>0.199121</I-8-5>
                <I-8-6>0.9548343</I-8-6>
                <I-8-7>0.1427821</I-8-7>
                <I-8-8>0.1117767</I-8-8>
                <I-8-9>0.5215001</I-8-9>
                <I-9-1>0.3872967</I-9-1>
                <I-9-2>0.4043335</I-9-2>
                <I-9-3>0.1191165</I-9-3>
                <I-9-4>0.03885806</I-9-4>
                <I-9-5>0.129677</I-9-5>
                <I-9-6>0.7588661</I-9-6>
                <I-9-7>0.5307681</I-9-7>
                <I-9-8>0.2129688</I-9-8>
                <I-9-9>0.2293246</I-9-9>
                <I-10-1>0.2698557</I-10-1>
                <I-10-2>-0.01410206</I-10-2>
                <I-10-3>-0.2054896</I-10-3>
                <I-10-4>0.3470851</I-10-4>
                <I-10-5>-0.1621566</I-10-5>
                <I-10-6>-0.7290296</I-10-6>
                <I-10-7>1.031764</I-10-7>
                <I-10-8>0.1958483</I-10-8>
                <I-10-9>-0.8534738</I-10-9>
                <I-11-1>0.4323943</I-11-1>
                <I-11-2>0.07852425</I-11-2>
                <I-11-3>0.2565455</I-11-3>
                <I-11-4>0.378991</I-11-4>
                <I-11-5>0.2063854</I-11-5>
                <I-11-6>-0.129896</I-11-6>
                <I-11-7>0.474713</I-11-7>
                <I-11-8>0.4605291</I-11-8>
                <I-11-9>0.1587364</I-11-9>
                <I-12-1>-0.03458758</I-12-1>
                <I-12-2>0.285924</I-12-2>
                <I-12-3>0.5336799</I-12-3>
                <I-12-4>0.1956534</I-12-4>
                <I-12-5>0.6018931</I-12-5>
                <I-12-6>0.5446259</I-12-6>
                <I-12-7>-0.4388483</I-12-7>
                <I-12-8>0.113259</I-12-8>
                <I-12-9>1.292547</I-12-9>
                <I-13-1>0.3285876</I-13-1>
                <I-13-2>0.04217908</I-13-2>
                <I-13-3>-0.006244251</I-13-3>
                <I-13-4>0.1578294</I-13-4>
                <I-13-5>0.1504963</I-13-5>
                <I-13-6>0.04976901</I-13-6>
                <I-13-7>0.4748302</I-13-7>
                <I-13-8>0.2190447</I-13-8>
                <I-13-9>0.05435788</I-13-9>
                <I-14-1>0.2389326</I-14-1>
                <I-14-2>0.162357</I-14-2>
                <I-14-3>0.1569</I-14-3>
                <I-14-4>-0.04151148</I-14-4>
                <I-14-5>0.0876812</I-14-5>
                <I-14-6>0.5135469</I-14-6>
                <I-14-7>0.1215647</I-14-7>
                <I-14-8>-0.2283512</I-14-8>
                <I-14-9>0.5562482</I-14-9>
                <I-15-1>0.4529694</I-15-1>
                <I-15-2>0.3014502</I-15-2>
                <I-15-3>-0.1414779</I-15-3>
                <I-15-4>0.09747265</I-15-4>
                <I-15-5>-0.1961351</I-15-5>
                <I-15-6>0.01013854</I-15-6>
                <I-15-7>1.014366</I-15-7>
                <I-15-8>-0.6062947</I-15-8>
                <I-15-9>0.3582056</I-15-9>
                <I-16-1>0.09453689</I-16-1>
                <I-16-2>0.05160357</I-16-2>
                <I-16-3>-0.4339167</I-16-3>
                <I-16-4>-0.2068599</I-16-4>
                <I-16-5>-0.4721916</I-16-5>
                <I-16-6>-0.4249601</I-16-6>
                <I-16-7>1.271921</I-16-7>
                <I-16-8>-0.9308066</I-16-8>
                <I-16-9>-0.7765439</I-16-9>
                <I-17-1>-0.08076336</I-17-1>
                <I-17-2>0.1655641</I-17-2>
                <I-17-3>0.4294256</I-17-3>
                <I-17-4>0.1768876</I-17-4>
                <I-17-5>0.3162769</I-17-5>
                <I-17-6>-0.326449</I-17-6>
                <I-17-7>-1.128284</I-17-7>
                <I-17-8>0.6018326</I-17-8>
                <I-17-9>-0.7791911</I-17-9>
                <I-18-1>0.0553406</I-18-1>
                <I-18-2>-0.08035577</I-18-2>
                <I-18-3>-0.2574987</I-18-3>
                <I-18-4>-0.05184245</I-18-4>
                <I-18-5>-0.1818167</I-18-5>
                <I-18-6>-0.1087212</I-18-6>
                <I-18-7>0.4040402</I-18-7>
                <I-18-8>-0.3683279</I-18-8>
                <I-18-9>-0.8954108</I-18-9>
                <I-19-1>-0.05429945</I-19-1>
                <I-19-2>-0.06587876</I-19-2>
                <I-19-3>0.1429301</I-19-3>
                <I-19-4>0.01215824</I-19-4>
                <I-19-5>0.06198572</I-19-5>
                <I-19-6>-0.1289747</I-19-6>
                <I-19-7>-0.1036384</I-19-7>
                <I-19-8>0.02230372</I-19-8>
                <I-19-9>-0.683704</I-19-9>
            </Weight>
        </Input>
        <Hidden>
            <HiddenNodeCount>9</HiddenNodeCount>
            <Weight>
                <H-1-1>-0.559045</H-1-1>
                <H-1-2>0.1472457</H-1-2>
                <H-2-1>0.1865709</H-2-1>
                <H-2-2>0.2806152</H-2-2>
                <H-3-1>0.8474371</H-3-1>
                <H-3-2>-0.1616369</H-3-2>
                <H-4-1>-0.1417275</H-4-1>
                <H-4-2>-0.5185257</H-4-2>
                <H-5-1>0.847572</H-5-1>
                <H-5-2>-0.2146569</H-5-2>
                <H-6-1>1.206474</H-6-1>
                <H-6-2>1.44816</H-6-2>
                <H-7-1>-2.703676</H-7-1>
                <H-7-2>1.038002</H-7-2>
                <H-8-1>0.2202477</H-8-1>
                <H-8-2>-1.79698</H-8-2>
                <H-9-1>1.764395</H-9-1>
                <H-9-2>1.716415</H-9-2>
            </Weight>
        </Hidden>
        <Output>
            <OutputNodeCount>2</OutputNodeCount>
            <Error>0.06768813</Error>
        </Output>
    </Layer>
</NeuralNetwork>