<?xml version="1.0" encoding="utf-8"?>
<NeuralNetwork>
    <Algorithm>BP</Algorithm>
    <Layer>
        <Input>
            <InputNodeCount>19</InputNodeCount>
            <Weight>
                <I-1-1>0.0925108</I-1-1>
                <I-1-2>0.2841816</I-1-2>
                <I-1-3>0.4696582</I-1-3>
                <I-1-4>0.119435</I-1-4>
                <I-1-5>0.2455675</I-1-5>
                <I-1-6>0.5256702</I-1-6>
                <I-1-7>0.05596586</I-1-7>
                <I-1-8>-0.001329805</I-1-8>
                <I-1-9>1.802385</I-1-9>
                <I-2-1>0.1008396</I-2-1>
                <I-2-2>-0.03190296</I-2-2>
                <I-2-3>0.04085376</I-2-3>
                <I-2-4>0.3419226</I-2-4>
                <I-2-5>0.05808859</I-2-5>
                <I-2-6>-0.242246</I-2-6>
                <I-2-7>0.455412</I-2-7>
                <I-2-8>0.8200999</I-2-8>
                <I-2-9>-0.789187</I-2-9>
                <I-3-1>0.4368616</I-3-1>
                <I-3-2>0.1970131</I-3-2>
                <I-3-3>-0.1514184</I-3-3>
                <I-3-4>0.1125426</I-3-4>
                <I-3-5>-0.08983605</I-3-5>
                <I-3-6>-0.0718547</I-3-6>
                <I-3-7>1.76348</I-3-7>
                <I-3-8>-0.3989308</I-3-8>
                <I-3-9>0.7123677</I-3-9>
                <I-4-1>0.1859643</I-4-1>
                <I-4-2>0.08804449</I-4-2>
                <I-4-3>-0.008823145</I-4-3>
                <I-4-4>0.04163606</I-4-4>
                <I-4-5>-0.012912</I-4-5>
                <I-4-6>0.583282</I-4-6>
                <I-4-7>0.3835754</I-4-7>
                <I-4-8>0.5164307</I-4-8>
                <I-4-9>-0.4872055</I-4-9>
                <I-5-1>-0.1392433</I-5-1>
                <I-5-2>0.2105579</I-5-2>
                <I-5-3>0.4367558</I-5-3>
                <I-5-4>0.1048471</I-5-4>
                <I-5-5>0.4808558</I-5-5>
                <I-5-6>1.51315</I-5-6>
                <I-5-7>-0.6977453</I-5-7>
                <I-5-8>-0.269994</I-5-8>
                <I-5-9>1.169178</I-5-9>
                <I-6-1>0.3510948</I-6-1>
                <I-6-2>0.1862887</I-6-2>
                <I-6-3>0.2897772</I-6-3>
                <I-6-4>0.1251561</I-6-4>
                <I-6-5>0.2902283</I-6-5>
                <I-6-6>0.09522463</I-6-6>
                <I-6-7>-0.6804736</I-6-7>
                <I-6-8>0.4206464</I-6-8>
                <I-6-9>0.5871009</I-6-9>
                <I-7-1>0.251306</I-7-1>
                <I-7-2>0.2989407</I-7-2>
                <I-7-3>-0.06511655</I-7-3>
                <I-7-4>0.2189139</I-7-4>
                <I-7-5>-0.005977661</I-7-5>
                <I-7-6>0.5039499</I-7-6>
                <I-7-7>0.7390972</I-7-7>
                <I-7-8>0.007231999</I-7-8>
                <I-7-9>-0.2140979</I-7-9>
                <I-8-1>0.570816</I-8-1>
                <I-8-2>0.2059385</I-8-2>
                <I-8-3>-0.03112116</I-8-3>
                <I-8-4>0.03540609</I-8-4>
                <I-8-5>-0.02312815</I-8-5>
                <I-8-6>0.9727271</I-8-6>
                <I-8-7>-0.1747394</I-8-7>
                <I-8-8>0.115095</I-8-8>
                <I-8-9>0.3005669</I-8-9>
                <I-9-1>0.5716636</I-9-1>
                <I-9-2>0.4309053</I-9-2>
                <I-9-3>-0.08760043</I-9-3>
                <I-9-4>0.1166457</I-9-4>
                <I-9-5>-0.03303281</I-9-5>
                <I-9-6>0.7237812</I-9-6>
                <I-9-7>-0.0123111</I-9-7>
                <I-9-8>0.3458594</I-9-8>
                <I-9-9>0.03752574</I-9-9>
                <I-10-1>0.1595941</I-10-1>
                <I-10-2>0.03583614</I-10-2>
                <I-10-3>-0.02038605</I-10-3>
                <I-10-4>0.4136311</I-10-4>
                <I-10-5>0.06305882</I-10-5>
                <I-10-6>-0.9938937</I-10-6>
                <I-10-7>0.4107691</I-10-7>
                <I-10-8>0.6256732</I-10-8>
                <I-10-9>-0.468929</I-10-9>
                <I-11-1>0.236541</I-11-1>
                <I-11-2>0.1100474</I-11-2>
                <I-11-3>0.4804779</I-11-3>
                <I-11-4>0.2986977</I-11-4>
                <I-11-5>0.3929603</I-11-5>
                <I-11-6>0.09012672</I-11-6>
                <I-11-7>0.9140456</I-11-7>
                <I-11-8>0.3538134</I-11-8>
                <I-11-9>1.708502</I-11-9>
                <I-12-1>-0.1870854</I-12-1>
                <I-12-2>0.1504621</I-12-2>
                <I-12-3>0.7708209</I-12-3>
                <I-12-4>0.3327239</I-12-4>
                <I-12-5>0.8224574</I-12-5>
                <I-12-6>0.336583</I-12-6>
                <I-12-7>0.2242707</I-12-7>
                <I-12-8>0.5908137</I-12-8>
                <I-12-9>2.067725</I-12-9>
                <I-13-1>0.3009825</I-13-1>
                <I-13-2>0.003610812</I-13-2>
                <I-13-3>0.0751579</I-13-3>
                <I-13-4>0.3346795</I-13-4>
                <I-13-5>0.3049585</I-13-5>
                <I-13-6>-0.3726324</I-13-6>
                <I-13-7>0.8943799</I-13-7>
                <I-13-8>0.9207127</I-13-8>
                <I-13-9>0.2806891</I-13-9>
                <I-14-1>0.1001176</I-14-1>
                <I-14-2>0.08221719</I-14-2>
                <I-14-3>0.3524095</I-14-3>
                <I-14-4>-0.0105768</I-14-4>
                <I-14-5>0.2858897</I-14-5>
                <I-14-6>0.5816112</I-14-6>
                <I-14-7>-0.1442284</I-14-7>
                <I-14-8>0.1277601</I-14-8>
                <I-14-9>0.9491596</I-14-9>
                <I-15-1>0.48185</I-15-1>
                <I-15-2>0.3868501</I-15-2>
                <I-15-3>-0.3303492</I-15-3>
                <I-15-4>0.05836046</I-15-4>
                <I-15-5>-0.3520156</I-15-5>
                <I-15-6>-0.01079989</I-15-6>
                <I-15-7>2.237804</I-15-7>
                <I-15-8>-0.6884175</I-15-8>
                <I-15-9>0.5355729</I-15-9>
                <I-16-1>-0.2029596</I-16-1>
                <I-16-2>-0.02637585</I-16-2>
                <I-16-3>-0.07881063</I-16-3>
                <I-16-4>-0.2214026</I-16-4>
                <I-16-5>-0.0899621</I-16-5>
                <I-16-6>0.2535768</I-16-6>
                <I-16-7>1.162285</I-16-7>
                <I-16-8>-0.8688273</I-16-8>
                <I-16-9>-1.105412</I-16-9>
                <I-17-1>-0.2189752</I-17-1>
                <I-17-2>0.04870701</I-17-2>
                <I-17-3>0.4393036</I-17-3>
                <I-17-4>-0.01323967</I-17-4>
                <I-17-5>0.2877555</I-17-5>
                <I-17-6>0.1246524</I-17-6>
                <I-17-7>-1.227245</I-17-7>
                <I-17-8>-0.09512845</I-17-8>
                <I-17-9>-1.356325</I-17-9>
                <I-18-1>-0.2985783</I-18-1>
                <I-18-2>-0.2075572</I-18-2>
                <I-18-3>0.07212025</I-18-3>
                <I-18-4>-0.2072662</I-18-4>
                <I-18-5>0.09883317</I-18-5>
                <I-18-6>0.2494083</I-18-6>
                <I-18-7>-0.3800601</I-18-7>
                <I-18-8>-0.8408052</I-18-8>
                <I-18-9>-1.448405</I-18-9>
                <I-19-1>-0.1964222</I-19-1>
                <I-19-2>-0.1684181</I-19-2>
                <I-19-3>0.2680894</I-19-3>
                <I-19-4>-0.0530294</I-19-4>
                <I-19-5>0.1722667</I-19-5>
                <I-19-6>0.02691466</I-19-6>
                <I-19-7>-0.4691825</I-19-7>
                <I-19-8>-0.2500078</I-19-8>
                <I-19-9>-1.247826</I-19-9>
            </Weight>
        </Input>
        <Hidden>
            <HiddenNodeCount>9</HiddenNodeCount>
            <Weight>
                <H-1-1>-0.8955632</H-1-1>
                <H-1-2>0.07641758</H-1-2>
                <H-2-1>-0.2222382</H-2-1>
                <H-2-2>0.2337217</H-2-2>
                <H-3-1>1.074958</H-3-1>
                <H-3-2>-0.11983</H-3-2>
                <H-4-1>-0.0713304</H-4-1>
                <H-4-2>-0.4554158</H-4-2>
                <H-5-1>0.9182057</H-5-1>
                <H-5-2>-0.2670633</H-5-2>
                <H-6-1>1.184047</H-6-1>
                <H-6-2>1.462602</H-6-2>
                <H-7-1>-2.532743</H-7-1>
                <H-7-2>1.40778</H-7-2>
                <H-8-1>-0.3231696</H-8-1>
                <H-8-2>-1.853986</H-8-2>
                <H-9-1>2.355755</H-9-1>
                <H-9-2>1.380249</H-9-2>
            </Weight>
        </Hidden>
        <Output>
            <OutputNodeCount>2</OutputNodeCount>
            <Error>0.0603658</Error>
        </Output>
    </Layer>
</NeuralNetwork>