<?xml version="1.0" encoding="utf-8"?>
<NeuralNetwork>
    <Algorithm>BP</Algorithm>
    <Layer>
        <Input>
            <InputNodeCount>19</InputNodeCount>
            <Weight>
                <I-1-1>1.937702</I-1-1>
                <I-1-2>2.672843</I-1-2>
                <I-1-3>0.5087642</I-1-3>
                <I-1-4>1.800178</I-1-4>
                <I-1-5>2.259379</I-1-5>
                <I-1-6>1.391376</I-1-6>
                <I-1-7>2.01106</I-1-7>
                <I-1-8>1.174065</I-1-8>
                <I-1-9>2.211484</I-1-9>
                <I-1-10>-0.09224435</I-1-10>
                <I-1-11>0.7330706</I-1-11>
                <I-1-12>-1.197069</I-1-12>
                <I-1-13>1.032405</I-1-13>
                <I-1-14>2.316349</I-1-14>
                <I-1-15>1.184393</I-1-15>
                <I-1-16>1.813102</I-1-16>
                <I-1-17>2.837958</I-1-17>
                <I-1-18>1.88647</I-1-18>
                <I-1-19>1.714417</I-1-19>
                <I-1-20>1.317183</I-1-20>
                <I-1-21>2.284818</I-1-21>
                <I-1-22>1.680638</I-1-22>
                <I-1-23>1.195464</I-1-23>
                <I-1-24>1.885777</I-1-24>
                <I-1-25>1.558383</I-1-25>
                <I-1-26>3.490112</I-1-26>
                <I-1-27>2.005524</I-1-27>
                <I-1-28>1.845168</I-1-28>
                <I-1-29>3.598484</I-1-29>
                <I-1-30>-1.921067</I-1-30>
                <I-1-31>1.214903</I-1-31>
                <I-1-32>1.570395</I-1-32>
                <I-1-33>2.274794</I-1-33>
                <I-1-34>1.381637</I-1-34>
                <I-1-35>0.5852313</I-1-35>
                <I-1-36>1.718194</I-1-36>
                <I-1-37>2.406132</I-1-37>
                <I-1-38>1.8563</I-1-38>
                <I-2-1>0.4334331</I-2-1>
                <I-2-2>1.626779</I-2-2>
                <I-2-3>0.8812943</I-2-3>
                <I-2-4>1.523463</I-2-4>
                <I-2-5>-1.359882</I-2-5>
                <I-2-6>1.8585</I-2-6>
                <I-2-7>0.5979444</I-2-7>
                <I-2-8>1.327813</I-2-8>
                <I-2-9>0.9944464</I-2-9>
                <I-2-10>0.8116013</I-2-10>
                <I-2-11>0.175835</I-2-11>
                <I-2-12>3.621012</I-2-12>
                <I-2-13>2.033999</I-2-13>
                <I-2-14>5.181573</I-2-14>
                <I-2-15>3.188515</I-2-15>
                <I-2-16>0.7237231</I-2-16>
                <I-2-17>0.1076535</I-2-17>
                <I-2-18>0.6611115</I-2-18>
                <I-2-19>0.5061558</I-2-19>
                <I-2-20>-0.8161106</I-2-20>
                <I-2-21>0.7124336</I-2-21>
                <I-2-22>0.7255262</I-2-22>
                <I-2-23>-0.773165</I-2-23>
                <I-2-24>1.138131</I-2-24>
                <I-2-25>1.315059</I-2-25>
                <I-2-26>2.521002</I-2-26>
                <I-2-27>0.6117528</I-2-27>
                <I-2-28>1.022668</I-2-28>
                <I-2-29>0.293796</I-2-29>
                <I-2-30>4.374579</I-2-30>
                <I-2-31>1.399974</I-2-31>
                <I-2-32>0.7903063</I-2-32>
                <I-2-33>0.8481405</I-2-33>
                <I-2-34>0.8323602</I-2-34>
                <I-2-35>1.464578</I-2-35>
                <I-2-36>0.7539606</I-2-36>
                <I-2-37>1.880807</I-2-37>
                <I-2-38>0.2389028</I-2-38>
                <I-3-1>0.526784</I-3-1>
                <I-3-2>1.14089</I-3-2>
                <I-3-3>-0.8715238</I-3-3>
                <I-3-4>1.172677</I-3-4>
                <I-3-5>-0.1610094</I-3-5>
                <I-3-6>0.7027315</I-3-6>
                <I-3-7>0.09853873</I-3-7>
                <I-3-8>2.585262</I-3-8>
                <I-3-9>0.7775598</I-3-9>
                <I-3-10>-0.1347675</I-3-10>
                <I-3-11>0.2705175</I-3-11>
                <I-3-12>-0.5306891</I-3-12>
                <I-3-13>0.6137998</I-3-13>
                <I-3-14>1.531714</I-3-14>
                <I-3-15>2.388527</I-3-15>
                <I-3-16>0.4672105</I-3-16>
                <I-3-17>1.481382</I-3-17>
                <I-3-18>0.7984043</I-3-18>
                <I-3-19>0.5231233</I-3-19>
                <I-3-20>-0.3250262</I-3-20>
                <I-3-21>1.222348</I-3-21>
                <I-3-22>0.3675305</I-3-22>
                <I-3-23>1.838286</I-3-23>
                <I-3-24>0.7985479</I-3-24>
                <I-3-25>0.3359571</I-3-25>
                <I-3-26>-0.1849412</I-3-26>
                <I-3-27>0.6178674</I-3-27>
                <I-3-28>0.702729</I-3-28>
                <I-3-29>0.4429109</I-3-29>
                <I-3-30>1.582356</I-3-30>
                <I-3-31>-0.03320291</I-3-31>
                <I-3-32>0.5094953</I-3-32>
                <I-3-33>0.7303279</I-3-33>
                <I-3-34>0.5685678</I-3-34>
                <I-3-35>-1.076059</I-3-35>
                <I-3-36>0.0532888</I-3-36>
                <I-3-37>0.9676868</I-3-37>
                <I-3-38>0.5697675</I-3-38>
                <I-4-1>3.753003</I-4-1>
                <I-4-2>2.690141</I-4-2>
                <I-4-3>2.766739</I-4-3>
                <I-4-4>3.41785</I-4-4>
                <I-4-5>1.06698</I-4-5>
                <I-4-6>2.858803</I-4-6>
                <I-4-7>3.164277</I-4-7>
                <I-4-8>0.8565449</I-4-8>
                <I-4-9>3.828792</I-4-9>
                <I-4-10>2.339956</I-4-10>
                <I-4-11>4.050221</I-4-11>
                <I-4-12>2.671545</I-4-12>
                <I-4-13>3.815545</I-4-13>
                <I-4-14>2.743214</I-4-14>
                <I-4-15>2.645254</I-4-15>
                <I-4-16>3.359862</I-4-16>
                <I-4-17>2.254552</I-4-17>
                <I-4-18>3.983963</I-4-18>
                <I-4-19>4.159173</I-4-19>
                <I-4-20>0.7341393</I-4-20>
                <I-4-21>3.389872</I-4-21>
                <I-4-22>3.548234</I-4-22>
                <I-4-23>0.4837985</I-4-23>
                <I-4-24>3.523644</I-4-24>
                <I-4-25>2.716988</I-4-25>
                <I-4-26>1.313556</I-4-26>
                <I-4-27>3.044761</I-4-27>
                <I-4-28>3.148465</I-4-28>
                <I-4-29>0.9066734</I-4-29>
                <I-4-30>4.695283</I-4-30>
                <I-4-31>2.106306</I-4-31>
                <I-4-32>3.401313</I-4-32>
                <I-4-33>2.850855</I-4-33>
                <I-4-34>4.476151</I-4-34>
                <I-4-35>0.590296</I-4-35>
                <I-4-36>3.073227</I-4-36>
                <I-4-37>3.5398</I-4-37>
                <I-4-38>3.417085</I-4-38>
                <I-5-1>0.03654517</I-5-1>
                <I-5-2>-0.8535957</I-5-2>
                <I-5-3>-0.4973798</I-5-3>
                <I-5-4>0.716101</I-5-4>
                <I-5-5>0.4528671</I-5-5>
                <I-5-6>0.1491721</I-5-6>
                <I-5-7>-0.3677615</I-5-7>
                <I-5-8>-0.9825992</I-5-8>
                <I-5-9>0.2648033</I-5-9>
                <I-5-10>-0.7528514</I-5-10>
                <I-5-11>-0.2923594</I-5-11>
                <I-5-12>0.166268</I-5-12>
                <I-5-13>0.04895664</I-5-13>
                <I-5-14>1.70064</I-5-14>
                <I-5-15>0.126324</I-5-15>
                <I-5-16>-0.007953239</I-5-16>
                <I-5-17>-0.2400428</I-5-17>
                <I-5-18>0.06522721</I-5-18>
                <I-5-19>-0.07399284</I-5-19>
                <I-5-20>0.3219489</I-5-20>
                <I-5-21>-0.2071645</I-5-21>
                <I-5-22>0.03246266</I-5-22>
                <I-5-23>1.330414</I-5-23>
                <I-5-24>0.1658236</I-5-24>
                <I-5-25>-1.177333</I-5-25>
                <I-5-26>-1.317587</I-5-26>
                <I-5-27>0.08861032</I-5-27>
                <I-5-28>0.4032313</I-5-28>
                <I-5-29>0.764366</I-5-29>
                <I-5-30>3.019182</I-5-30>
                <I-5-31>0.2574615</I-5-31>
                <I-5-32>-0.1336008</I-5-32>
                <I-5-33>-0.03246938</I-5-33>
                <I-5-34>0.04639246</I-5-34>
                <I-5-35>1.064698</I-5-35>
                <I-5-36>-0.6263123</I-5-36>
                <I-5-37>0.7723666</I-5-37>
                <I-5-38>-0.125503</I-5-38>
                <I-6-1>0.3062134</I-6-1>
                <I-6-2>0.8757292</I-6-2>
                <I-6-3>-0.6962458</I-6-3>
                <I-6-4>-1.404388</I-6-4>
                <I-6-5>-3.109167</I-6-5>
                <I-6-6>-0.2405794</I-6-6>
                <I-6-7>0.5654521</I-6-7>
                <I-6-8>2.110468</I-6-8>
                <I-6-9>-0.7005432</I-6-9>
                <I-6-10>0.07874145</I-6-10>
                <I-6-11>0.2541781</I-6-11>
                <I-6-12>0.6766872</I-6-12>
                <I-6-13>-0.8312241</I-6-13>
                <I-6-14>-4.374233</I-6-14>
                <I-6-15>2.057229</I-6-15>
                <I-6-16>-0.1823658</I-6-16>
                <I-6-17>-0.6848791</I-6-17>
                <I-6-18>-0.2924839</I-6-18>
                <I-6-19>0.01243194</I-6-19>
                <I-6-20>1.424984</I-6-20>
                <I-6-21>0.2588136</I-6-21>
                <I-6-22>0.2458782</I-6-22>
                <I-6-23>-2.20769</I-6-23>
                <I-6-24>-1.215795</I-6-24>
                <I-6-25>1.020511</I-6-25>
                <I-6-26>-0.08984938</I-6-26>
                <I-6-27>-0.6683724</I-6-27>
                <I-6-28>-0.6138364</I-6-28>
                <I-6-29>-3.80912</I-6-29>
                <I-6-30>3.725325</I-6-30>
                <I-6-31>-1.723328</I-6-31>
                <I-6-32>0.2708681</I-6-32>
                <I-6-33>0.2264595</I-6-33>
                <I-6-34>0.8122002</I-6-34>
                <I-6-35>-3.772449</I-6-35>
                <I-6-36>0.4013876</I-6-36>
                <I-6-37>-1.685012</I-6-37>
                <I-6-38>-0.235419</I-6-38>
                <I-7-1>0.2889903</I-7-1>
                <I-7-2>-0.2103466</I-7-2>
                <I-7-3>-0.3314727</I-7-3>
                <I-7-4>0.2300182</I-7-4>
                <I-7-5>-0.5192664</I-7-5>
                <I-7-6>-0.6641821</I-7-6>
                <I-7-7>-0.5771376</I-7-7>
                <I-7-8>0.6613569</I-7-8>
                <I-7-9>0.1154146</I-7-9>
                <I-7-10>0.03760435</I-7-10>
                <I-7-11>0.9277784</I-7-11>
                <I-7-12>-0.2633811</I-7-12>
                <I-7-13>0.006905032</I-7-13>
                <I-7-14>0.2705283</I-7-14>
                <I-7-15>-0.02560841</I-7-15>
                <I-7-16>-0.6751243</I-7-16>
                <I-7-17>-0.06747065</I-7-17>
                <I-7-18>-0.1179613</I-7-18>
                <I-7-19>0.07669405</I-7-19>
                <I-7-20>-0.520909</I-7-20>
                <I-7-21>0.1512733</I-7-21>
                <I-7-22>-0.6810945</I-7-22>
                <I-7-23>-1.180458</I-7-23>
                <I-7-24>-0.3691778</I-7-24>
                <I-7-25>-0.1532407</I-7-25>
                <I-7-26>0.3353325</I-7-26>
                <I-7-27>-0.6304876</I-7-27>
                <I-7-28>0.9520593</I-7-28>
                <I-7-29>-1.60582</I-7-29>
                <I-7-30>2.060488</I-7-30>
                <I-7-31>-1.574396</I-7-31>
                <I-7-32>-0.2689429</I-7-32>
                <I-7-33>0.5925918</I-7-33>
                <I-7-34>0.3314541</I-7-34>
                <I-7-35>-0.5084237</I-7-35>
                <I-7-36>-0.2668565</I-7-36>
                <I-7-37>-0.02175744</I-7-37>
                <I-7-38>-0.2404862</I-7-38>
                <I-8-1>-0.2563738</I-8-1>
                <I-8-2>-1.585842</I-8-2>
                <I-8-3>-0.9324136</I-8-3>
                <I-8-4>1.279682</I-8-4>
                <I-8-5>0.155901</I-8-5>
                <I-8-6>0.6160724</I-8-6>
                <I-8-7>-0.5321886</I-8-7>
                <I-8-8>0.6478102</I-8-8>
                <I-8-9>0.7743508</I-8-9>
                <I-8-10>-0.8838022</I-8-10>
                <I-8-11>0.5740698</I-8-11>
                <I-8-12>1.375368</I-8-12>
                <I-8-13>0.8696218</I-8-13>
                <I-8-14>2.236343</I-8-14>
                <I-8-15>-1.573175</I-8-15>
                <I-8-16>0.05079767</I-8-16>
                <I-8-17>-0.1738561</I-8-17>
                <I-8-18>0.3998079</I-8-18>
                <I-8-19>0.4054069</I-8-19>
                <I-8-20>-0.3354103</I-8-20>
                <I-8-21>-0.5851062</I-8-21>
                <I-8-22>-0.1861415</I-8-22>
                <I-8-23>-0.1569038</I-8-23>
                <I-8-24>0.6439129</I-8-24>
                <I-8-25>-0.7930604</I-8-25>
                <I-8-26>-3.9757</I-8-26>
                <I-8-27>0.371284</I-8-27>
                <I-8-28>0.7332092</I-8-28>
                <I-8-29>-0.2131044</I-8-29>
                <I-8-30>2.354435</I-8-30>
                <I-8-31>0.1901204</I-8-31>
                <I-8-32>-0.6154478</I-8-32>
                <I-8-33>-0.1105542</I-8-33>
                <I-8-34>0.0379896</I-8-34>
                <I-8-35>0.5296795</I-8-35>
                <I-8-36>-0.4069738</I-8-36>
                <I-8-37>1.174668</I-8-37>
                <I-8-38>0.01168941</I-8-38>
                <I-9-1>-0.05724363</I-9-1>
                <I-9-2>-1.00384</I-9-2>
                <I-9-3>-0.0375388</I-9-3>
                <I-9-4>0.996048</I-9-4>
                <I-9-5>-0.7501191</I-9-5>
                <I-9-6>-0.05662477</I-9-6>
                <I-9-7>-0.1079224</I-9-7>
                <I-9-8>1.265684</I-9-8>
                <I-9-9>0.2402587</I-9-9>
                <I-9-10>0.3782212</I-9-10>
                <I-9-11>0.3300188</I-9-11>
                <I-9-12>-0.08193022</I-9-12>
                <I-9-13>-0.3255062</I-9-13>
                <I-9-14>0.9791956</I-9-14>
                <I-9-15>-0.8009416</I-9-15>
                <I-9-16>0.1340067</I-9-16>
                <I-9-17>-0.6685563</I-9-17>
                <I-9-18>0.0477576</I-9-18>
                <I-9-19>-0.00189614</I-9-19>
                <I-9-20>0.6696899</I-9-20>
                <I-9-21>-0.4168846</I-9-21>
                <I-9-22>0.09608422</I-9-22>
                <I-9-23>-1.235206</I-9-23>
                <I-9-24>0.3784783</I-9-24>
                <I-9-25>0.06181541</I-9-25>
                <I-9-26>-5.029042</I-9-26>
                <I-9-27>0.3633435</I-9-27>
                <I-9-28>0.5751645</I-9-28>
                <I-9-29>-0.3970849</I-9-29>
                <I-9-30>1.461565</I-9-30>
                <I-9-31>0.3361622</I-9-31>
                <I-9-32>0.0244498</I-9-32>
                <I-9-33>0.3379631</I-9-33>
                <I-9-34>0.02937364</I-9-34>
                <I-9-35>-0.1602988</I-9-35>
                <I-9-36>0.09216339</I-9-36>
                <I-9-37>0.4654369</I-9-37>
                <I-9-38>0.2532635</I-9-38>
                <I-10-1>0.06707565</I-10-1>
                <I-10-2>-0.00232919</I-10-2>
                <I-10-3>-1.093118</I-10-3>
                <I-10-4>0.1368668</I-10-4>
                <I-10-5>2.134223</I-10-5>
                <I-10-6>0.7129654</I-10-6>
                <I-10-7>-0.3352551</I-10-7>
                <I-10-8>-1.064835</I-10-8>
                <I-10-9>0.8399805</I-10-9>
                <I-10-10>-1.560565</I-10-10>
                <I-10-11>1.254492</I-10-11>
                <I-10-12>3.423403</I-10-12>
                <I-10-13>2.488765</I-10-13>
                <I-10-14>1.922021</I-10-14>
                <I-10-15>-0.9321875</I-10-15>
                <I-10-16>0.1170336</I-10-16>
                <I-10-17>0.4935223</I-10-17>
                <I-10-18>0.3565806</I-10-18>
                <I-10-19>0.4177163</I-10-19>
                <I-10-20>-1.910134</I-10-20>
                <I-10-21>0.3224439</I-10-21>
                <I-10-22>-0.1464182</I-10-22>
                <I-10-23>2.186777</I-10-23>
                <I-10-24>0.6946335</I-10-24>
                <I-10-25>-0.4117544</I-10-25>
                <I-10-26>7.740942</I-10-26>
                <I-10-27>0.1814487</I-10-27>
                <I-10-28>0.8458314</I-10-28>
                <I-10-29>0.8947915</I-10-29>
                <I-10-30>-0.9140338</I-10-30>
                <I-10-31>0.4892769</I-10-31>
                <I-10-32>-0.76612</I-10-32>
                <I-10-33>-0.5096244</I-10-33>
                <I-10-34>0.1363364</I-10-34>
                <I-10-35>2.158079</I-10-35>
                <I-10-36>-0.6445714</I-10-36>
                <I-10-37>1.027121</I-10-37>
                <I-10-38>0.0608307</I-10-38>
                <I-11-1>-0.1449312</I-11-1>
                <I-11-2>1.03614</I-11-2>
                <I-11-3>0.2958122</I-11-3>
                <I-11-4>-0.8852783</I-11-4>
                <I-11-5>-3.597804</I-11-5>
                <I-11-6>0.7969683</I-11-6>
                <I-11-7>0.7121838</I-11-7>
                <I-11-8>-2.707275</I-11-8>
                <I-11-9>-0.3956299</I-11-9>
                <I-11-10>-0.2019468</I-11-10>
                <I-11-11>-1.139067</I-11-11>
                <I-11-12>1.11875</I-11-12>
                <I-11-13>-0.4075919</I-11-13>
                <I-11-14>-2.118457</I-11-14>
                <I-11-15>2.947404</I-11-15>
                <I-11-16>0.8637913</I-11-16>
                <I-11-17>-0.4563423</I-11-17>
                <I-11-18>0.0722376</I-11-18>
                <I-11-19>-0.3237492</I-11-19>
                <I-11-20>1.965425</I-11-20>
                <I-11-21>-0.2936791</I-11-21>
                <I-11-22>1.089325</I-11-22>
                <I-11-23>0.6771595</I-11-23>
                <I-11-24>0.1713271</I-11-24>
                <I-11-25>-1.365517</I-11-25>
                <I-11-26>0.6367849</I-11-26>
                <I-11-27>0.5651033</I-11-27>
                <I-11-28>-0.5570578</I-11-28>
                <I-11-29>0.4908482</I-11-29>
                <I-11-30>1.004666</I-11-30>
                <I-11-31>1.782321</I-11-31>
                <I-11-32>0.9380133</I-11-32>
                <I-11-33>-0.4097029</I-11-33>
                <I-11-34>0.02300536</I-11-34>
                <I-11-35>-2.85379</I-11-35>
                <I-11-36>-1.236796</I-11-36>
                <I-11-37>-0.3696712</I-11-37>
                <I-11-38>0.4992131</I-11-38>
                <I-12-1>0.7686183</I-12-1>
                <I-12-2>2.663484</I-12-2>
                <I-12-3>0.7719568</I-12-3>
                <I-12-4>-0.8695757</I-12-4>
                <I-12-5>3.595366</I-12-5>
                <I-12-6>-0.5758303</I-12-6>
                <I-12-7>0.166317</I-12-7>
                <I-12-8>-3.017645</I-12-8>
                <I-12-9>-0.2920075</I-12-9>
                <I-12-10>0.08762821</I-12-10>
                <I-12-11>-0.1034839</I-12-11>
                <I-12-12>-3.166485</I-12-12>
                <I-12-13>-0.762955</I-12-13>
                <I-12-14>-0.7862958</I-12-14>
                <I-12-15>2.541318</I-12-15>
                <I-12-16>-0.4474988</I-12-16>
                <I-12-17>3.025024</I-12-17>
                <I-12-18>0.05294158</I-12-18>
                <I-12-19>0.1637858</I-12-19>
                <I-12-20>-1.26168</I-12-20>
                <I-12-21>2.389293</I-12-21>
                <I-12-22>-0.0487486</I-12-22>
                <I-12-23>4.657127</I-12-23>
                <I-12-24>-0.9936647</I-12-24>
                <I-12-25>0.245683</I-12-25>
                <I-12-26>-0.93832</I-12-26>
                <I-12-27>-0.7028952</I-12-27>
                <I-12-28>-0.5089601</I-12-28>
                <I-12-29>5.790203</I-12-29>
                <I-12-30>-0.5576758</I-12-30>
                <I-12-31>-1.331945</I-12-31>
                <I-12-32>0.3241819</I-12-32>
                <I-12-33>0.1302757</I-12-33>
                <I-12-34>0.4572166</I-12-34>
                <I-12-35>2.396453</I-12-35>
                <I-12-36>0.5256442</I-12-36>
                <I-12-37>-0.9818681</I-12-37>
                <I-12-38>-0.2952343</I-12-38>
                <I-13-1>0.3525231</I-13-1>
                <I-13-2>0.7422337</I-13-2>
                <I-13-3>-0.2435785</I-13-3>
                <I-13-4>1.27761</I-13-4>
                <I-13-5>1.322274</I-13-5>
                <I-13-6>-0.5803798</I-13-6>
                <I-13-7>-0.0006400027</I-13-7>
                <I-13-8>0.4812202</I-13-8>
                <I-13-9>0.1649219</I-13-9>
                <I-13-10>-0.5121694</I-13-10>
                <I-13-11>-0.1312243</I-13-11>
                <I-13-12>-3.69407</I-13-12>
                <I-13-13>-0.6629094</I-13-13>
                <I-13-14>3.048805</I-13-14>
                <I-13-15>0.3387656</I-13-15>
                <I-13-16>-0.1908873</I-13-16>
                <I-13-17>1.181592</I-13-17>
                <I-13-18>0.1597672</I-13-18>
                <I-13-19>0.05376799</I-13-19>
                <I-13-20>-0.3211627</I-13-20>
                <I-13-21>0.8577732</I-13-21>
                <I-13-22>-0.1947749</I-13-22>
                <I-13-23>1.197189</I-13-23>
                <I-13-24>0.2967812</I-13-24>
                <I-13-25>0.7485781</I-13-25>
                <I-13-26>4.942123</I-13-26>
                <I-13-27>0.2079949</I-13-27>
                <I-13-28>0.3887492</I-13-28>
                <I-13-29>2.305842</I-13-29>
                <I-13-30>0.4458247</I-13-30>
                <I-13-31>0.6227685</I-13-31>
                <I-13-32>-0.2332037</I-13-32>
                <I-13-33>0.2543493</I-13-33>
                <I-13-34>-0.0873518</I-13-34>
                <I-13-35>1.066162</I-13-35>
                <I-13-36>0.3392175</I-13-36>
                <I-13-37>0.5619834</I-13-37>
                <I-13-38>-0.07778333</I-13-38>
                <I-14-1>-0.9028612</I-14-1>
                <I-14-2>-1.251101</I-14-2>
                <I-14-3>-1.63969</I-14-3>
                <I-14-4>1.905089</I-14-4>
                <I-14-5>0.5470736</I-14-5>
                <I-14-6>1.269092</I-14-6>
                <I-14-7>0.7159452</I-14-7>
                <I-14-8>4.135931</I-14-8>
                <I-14-9>0.2981503</I-14-9>
                <I-14-10>-1.25222</I-14-10>
                <I-14-11>-1.645309</I-14-11>
                <I-14-12>-2.259619</I-14-12>
                <I-14-13>-1.082431</I-14-13>
                <I-14-14>4.059064</I-14-14>
                <I-14-15>-2.099868</I-14-15>
                <I-14-16>1.038412</I-14-16>
                <I-14-17>0.3315865</I-14-17>
                <I-14-18>0.5058058</I-14-18>
                <I-14-19>-0.2810076</I-14-19>
                <I-14-20>2.610847</I-14-20>
                <I-14-21>-1.469844</I-14-21>
                <I-14-22>1.119371</I-14-22>
                <I-14-23>-1.165048</I-14-23>
                <I-14-24>1.280815</I-14-24>
                <I-14-25>1.805979</I-14-25>
                <I-14-26>-1.375304</I-14-26>
                <I-14-27>1.964707</I-14-27>
                <I-14-28>-1.425083</I-14-28>
                <I-14-29>3.14245</I-14-29>
                <I-14-30>0.6268948</I-14-30>
                <I-14-31>3.868647</I-14-31>
                <I-14-32>-0.08646013</I-14-32>
                <I-14-33>-1.353686</I-14-33>
                <I-14-34>-0.6491001</I-14-34>
                <I-14-35>3.316221</I-14-35>
                <I-14-36>1.142353</I-14-36>
                <I-14-37>1.212367</I-14-37>
                <I-14-38>0.6521442</I-14-38>
                <I-15-1>0.384228</I-15-1>
                <I-15-2>0.8871558</I-15-2>
                <I-15-3>0.9694709</I-15-3>
                <I-15-4>1.195642</I-15-4>
                <I-15-5>1.260122</I-15-5>
                <I-15-6>-1.209285</I-15-6>
                <I-15-7>0.2969277</I-15-7>
                <I-15-8>-1.371816</I-15-8>
                <I-15-9>-0.04638425</I-15-9>
                <I-15-10>0.8598323</I-15-10>
                <I-15-11>0.06971451</I-15-11>
                <I-15-12>-1.742296</I-15-12>
                <I-15-13>-0.3605396</I-15-13>
                <I-15-14>2.789542</I-15-14>
                <I-15-15>0.44684</I-15-15>
                <I-15-16>-0.3626163</I-15-16>
                <I-15-17>0.000683756</I-15-17>
                <I-15-18>-0.4267103</I-15-18>
                <I-15-19>-0.03798531</I-15-19>
                <I-15-20>-0.9878545</I-15-20>
                <I-15-21>0.4861231</I-15-21>
                <I-15-22>-0.3708288</I-15-22>
                <I-15-23>0.4049595</I-15-23>
                <I-15-24>0.4546552</I-15-24>
                <I-15-25>0.6941443</I-15-25>
                <I-15-26>4.493528</I-15-26>
                <I-15-27>-0.1490694</I-15-27>
                <I-15-28>0.8701619</I-15-28>
                <I-15-29>0.5356855</I-15-29>
                <I-15-30>-2.363343</I-15-30>
                <I-15-31>-0.3217241</I-15-31>
                <I-15-32>0.04823155</I-15-32>
                <I-15-33>0.9072127</I-15-33>
                <I-15-34>-0.3762316</I-15-34>
                <I-15-35>0.726652</I-15-35>
                <I-15-36>0.3187893</I-15-36>
                <I-15-37>0.5634962</I-15-37>
                <I-15-38>0.02271057</I-15-38>
                <I-16-1>-0.4485822</I-16-1>
                <I-16-2>-1.147741</I-16-2>
                <I-16-3>-0.4358329</I-16-3>
                <I-16-4>2.244979</I-16-4>
                <I-16-5>0.5333073</I-16-5>
                <I-16-6>0.0351805</I-16-6>
                <I-16-7>-1.109756</I-16-7>
                <I-16-8>-0.2628105</I-16-8>
                <I-16-9>0.8473341</I-16-9>
                <I-16-10>0.08599009</I-16-10>
                <I-16-11>0.4621864</I-16-11>
                <I-16-12>-2.173005</I-16-12>
                <I-16-13>0.6726933</I-16-13>
                <I-16-14>5.76437</I-16-14>
                <I-16-15>-1.701799</I-16-15>
                <I-16-16>-0.1612634</I-16-16>
                <I-16-17>-0.1693786</I-16-17>
                <I-16-18>0.2464166</I-16-18>
                <I-16-19>-0.01991441</I-16-19>
                <I-16-20>-1.209334</I-16-20>
                <I-16-21>-0.6321691</I-16-21>
                <I-16-22>-0.7022911</I-16-22>
                <I-16-23>-1.441016</I-16-23>
                <I-16-24>1.00374</I-16-24>
                <I-16-25>-0.8543159</I-16-25>
                <I-16-26>-1.875086</I-16-26>
                <I-16-27>0.09921618</I-16-27>
                <I-16-28>0.6047114</I-16-28>
                <I-16-29>0.1506677</I-16-29>
                <I-16-30>-0.5809317</I-16-30>
                <I-16-31>0.4129352</I-16-31>
                <I-16-32>-1.21978</I-16-32>
                <I-16-33>-0.2045091</I-16-33>
                <I-16-34>-0.219315</I-16-34>
                <I-16-35>1.264031</I-16-35>
                <I-16-36>-0.7334587</I-16-36>
                <I-16-37>1.788985</I-16-37>
                <I-16-38>-0.1530574</I-16-38>
                <I-17-1>-0.4128166</I-17-1>
                <I-17-2>-0.9017639</I-17-2>
                <I-17-3>1.016833</I-17-3>
                <I-17-4>-0.03516417</I-17-4>
                <I-17-5>0.9654188</I-17-5>
                <I-17-6>0.4980664</I-17-6>
                <I-17-7>-0.1188526</I-17-7>
                <I-17-8>-1.891289</I-17-8>
                <I-17-9>-0.2574246</I-17-9>
                <I-17-10>0.8028138</I-17-10>
                <I-17-11>-0.7093431</I-17-11>
                <I-17-12>2.785408</I-17-12>
                <I-17-13>0.6218779</I-17-13>
                <I-17-14>1.420401</I-17-14>
                <I-17-15>-0.6034647</I-17-15>
                <I-17-16>0.2955299</I-17-16>
                <I-17-17>-0.350497</I-17-17>
                <I-17-18>-0.1902259</I-17-18>
                <I-17-19>-0.6726994</I-17-19>
                <I-17-20>-1.181534</I-17-20>
                <I-17-21>-1.160448</I-17-21>
                <I-17-22>0.3239685</I-17-22>
                <I-17-23>2.138535</I-17-23>
                <I-17-24>0.2952175</I-17-24>
                <I-17-25>-0.3194511</I-17-25>
                <I-17-26>0.7512715</I-17-26>
                <I-17-27>0.472742</I-17-27>
                <I-17-28>-0.1882893</I-17-28>
                <I-17-29>0.0347206</I-17-29>
                <I-17-30>-0.3639776</I-17-30>
                <I-17-31>1.60621</I-17-31>
                <I-17-32>0.3557042</I-17-32>
                <I-17-33>-0.7045737</I-17-33>
                <I-17-34>-0.5992876</I-17-34>
                <I-17-35>1.922437</I-17-35>
                <I-17-36>-0.346149</I-17-36>
                <I-17-37>0.2669578</I-17-37>
                <I-17-38>0.008055257</I-17-38>
                <I-18-1>-0.1354387</I-18-1>
                <I-18-2>-0.668775</I-18-2>
                <I-18-3>-1.703589</I-18-3>
                <I-18-4>-0.7736156</I-18-4>
                <I-18-5>-0.4105782</I-18-5>
                <I-18-6>1.696254</I-18-6>
                <I-18-7>-0.2687126</I-18-7>
                <I-18-8>2.076168</I-18-8>
                <I-18-9>0.6116854</I-18-9>
                <I-18-10>-2.119998</I-18-10>
                <I-18-11>0.6408474</I-18-11>
                <I-18-12>4.896727</I-18-12>
                <I-18-13>1.622545</I-18-13>
                <I-18-14>0.1633751</I-18-14>
                <I-18-15>-0.6353238</I-18-15>
                <I-18-16>0.1920241</I-18-16>
                <I-18-17>-0.5865526</I-18-17>
                <I-18-18>0.5767409</I-18-18>
                <I-18-19>0.2232938</I-18-19>
                <I-18-20>-0.4286795</I-18-20>
                <I-18-21>-0.2660215</I-18-21>
                <I-18-22>0.477528</I-18-22>
                <I-18-23>-0.05366883</I-18-23>
                <I-18-24>-0.05234973</I-18-24>
                <I-18-25>0.6244968</I-18-25>
                <I-18-26>6.56956</I-18-26>
                <I-18-27>0.1502172</I-18-27>
                <I-18-28>-0.2096322</I-18-28>
                <I-18-29>-1.831701</I-18-29>
                <I-18-30>2.503077</I-18-30>
                <I-18-31>0.5848621</I-18-31>
                <I-18-32>-0.501727</I-18-32>
                <I-18-33>-1.229229</I-18-33>
                <I-18-34>0.6238136</I-18-34>
                <I-18-35>2.583466</I-18-35>
                <I-18-36>0.06782506</I-18-36>
                <I-18-37>0.004747172</I-18-37>
                <I-18-38>-0.3852363</I-18-38>
                <I-19-1>-0.003486598</I-19-1>
                <I-19-2>-0.2412239</I-19-2>
                <I-19-3>-0.9543173</I-19-3>
                <I-19-4>-0.9083654</I-19-4>
                <I-19-5>-0.2464011</I-19-5>
                <I-19-6>0.891358</I-19-6>
                <I-19-7>0.005669773</I-19-7>
                <I-19-8>1.390233</I-19-8>
                <I-19-9>0.1157418</I-19-9>
                <I-19-10>-1.169469</I-19-10>
                <I-19-11>0.6647398</I-19-11>
                <I-19-12>3.684139</I-19-12>
                <I-19-13>1.074022</I-19-13>
                <I-19-14>-0.2181506</I-19-14>
                <I-19-15>0.433639</I-19-15>
                <I-19-16>0.07876793</I-19-16>
                <I-19-17>-0.2678119</I-19-17>
                <I-19-18>0.2990726</I-19-18>
                <I-19-19>0.3837368</I-19-19>
                <I-19-20>-0.6864009</I-19-20>
                <I-19-21>0.06883193</I-19-21>
                <I-19-22>0.2757124</I-19-22>
                <I-19-23>0.8455799</I-19-23>
                <I-19-24>-0.2947405</I-19-24>
                <I-19-25>0.5661163</I-19-25>
                <I-19-26>4.283307</I-19-26>
                <I-19-27>-0.3560031</I-19-27>
                <I-19-28>-0.1406794</I-19-28>
                <I-19-29>-0.5260716</I-19-29>
                <I-19-30>2.652254</I-19-30>
                <I-19-31>-0.09277397</I-19-31>
                <I-19-32>-0.1893403</I-19-32>
                <I-19-33>-0.6773615</I-19-33>
                <I-19-34>0.6958359</I-19-34>
                <I-19-35>1.924052</I-19-35>
                <I-19-36>0.3483893</I-19-36>
                <I-19-37>-0.2938143</I-19-37>
                <I-19-38>-0.2410174</I-19-38>
            </Weight>
        </Input>
        <Hidden>
            <HiddenNodeCount>38</HiddenNodeCount>
            <Weight>
                <H-1-1>-0.2953593</H-1-1>
                <H-1-2>1.219735</H-1-2>
                <H-1-3>0.7119598</H-1-3>
                <H-2-1>-0.5882325</H-2-1>
                <H-2-2>2.117841</H-2-2>
                <H-2-3>3.132977</H-2-3>
                <H-3-1>-3.387508</H-3-1>
                <H-3-2>0.02401933</H-3-2>
                <H-3-3>0.5216272</H-3-3>
                <H-4-1>-0.738556</H-4-1>
                <H-4-2>-0.3947034</H-4-2>
                <H-4-3>-3.610637</H-4-3>
                <H-5-1>3.315226</H-5-1>
                <H-5-2>2.270564</H-5-2>
                <H-5-3>1.925725</H-5-3>
                <H-6-1>2.133761</H-6-1>
                <H-6-2>-1.959345</H-6-2>
                <H-6-3>0.1271316</H-6-3>
                <H-7-1>-0.5928286</H-7-1>
                <H-7-2>-0.8879142</H-7-2>
                <H-7-3>1.323642</H-7-3>
                <H-8-1>-3.046544</H-8-1>
                <H-8-2>-2.149393</H-8-2>
                <H-8-3>3.099613</H-8-3>
                <H-9-1>1.061513</H-9-1>
                <H-9-2>0.006348867</H-9-2>
                <H-9-3>-1.257689</H-9-3>
                <H-10-1>-3.403106</H-10-1>
                <H-10-2>-0.225537</H-10-2>
                <H-10-3>-0.3995332</H-10-3>
                <H-11-1>0.9805691</H-11-1>
                <H-11-2>2.049759</H-11-2>
                <H-11-3>-1.380986</H-11-3>
                <H-12-1>4.2507</H-12-1>
                <H-12-2>0.4914095</H-12-2>
                <H-12-3>-4.905493</H-12-3>
                <H-13-1>1.537719</H-13-1>
                <H-13-2>-0.1221494</H-13-2>
                <H-13-3>-2.616266</H-13-3>
                <H-14-1>-1.036622</H-14-1>
                <H-14-2>-2.184872</H-14-2>
                <H-14-3>-7.924162</H-14-3>
                <H-15-1>-0.678089</H-15-1>
                <H-15-2>2.295911</H-15-2>
                <H-15-3>5.27176</H-15-3>
                <H-16-1>0.4790697</H-16-1>
                <H-16-2>-1.535185</H-16-2>
                <H-16-3>0.4802709</H-16-3>
                <H-17-1>1.580209</H-17-1>
                <H-17-2>1.453597</H-17-2>
                <H-17-3>0.5236403</H-17-3>
                <H-18-1>1.148431</H-18-1>
                <H-18-2>-0.3129903</H-18-2>
                <H-18-3>-0.136178</H-18-3>
                <H-19-1>0.9210858</H-19-1>
                <H-19-2>0.7866349</H-19-2>
                <H-19-3>0.1108105</H-19-3>
                <H-20-1>-1.828787</H-20-1>
                <H-20-2>-4.151727</H-20-2>
                <H-20-3>-1.242564</H-20-3>
                <H-21-1>-0.2756029</H-21-1>
                <H-21-2>2.562449</H-21-2>
                <H-21-3>1.312329</H-21-3>
                <H-22-1>0.5589749</H-22-1>
                <H-22-2>-1.478279</H-22-2>
                <H-22-3>1.325688</H-22-3>
                <H-23-1>3.532479</H-23-1>
                <H-23-2>2.093556</H-23-2>
                <H-23-3>-2.237423</H-23-3>
                <H-24-1>-0.01153511</H-24-1>
                <H-24-2>-1.362275</H-24-2>
                <H-24-3>-1.635935</H-24-3>
                <H-25-1>-1.139333</H-25-1>
                <H-25-2>-0.2274679</H-25-2>
                <H-25-3>1.645779</H-25-3>
                <H-26-1>-7.753044</H-26-1>
                <H-26-2>2.313792</H-26-2>
                <H-26-3>0.02441279</H-26-3>
                <H-27-1>0.1281794</H-27-1>
                <H-27-2>-2.114372</H-27-2>
                <H-27-3>-0.6386418</H-27-3>
                <H-28-1>-0.6514118</H-28-1>
                <H-28-2>1.186674</H-28-2>
                <H-28-3>-1.994333</H-28-3>
                <H-29-1>5.426141</H-29-1>
                <H-29-2>0.9384303</H-29-2>
                <H-29-3>-0.627385</H-29-3>
                <H-30-1>-0.2552178</H-30-1>
                <H-30-2>1.777581</H-30-2>
                <H-30-3>5.770358</H-30-3>
                <H-31-1>-0.1496981</H-31-1>
                <H-31-2>-4.874875</H-31-2>
                <H-31-3>-0.7285413</H-31-3>
                <H-32-1>-0.9535185</H-32-1>
                <H-32-2>-0.5342981</H-32-2>
                <H-32-3>1.73134</H-32-3>
                <H-33-1>-1.707428</H-33-1>
                <H-33-2>1.479815</H-33-2>
                <H-33-3>-0.2339871</H-33-3>
                <H-34-1>1.085661</H-34-1>
                <H-34-2>1.242625</H-34-2>
                <H-34-3>1.151353</H-34-3>
                <H-35-1>3.637367</H-35-1>
                <H-35-2>-0.2698076</H-35-2>
                <H-35-3>3.923079</H-35-3>
                <H-36-1>-0.7353537</H-36-1>
                <H-36-2>0.2327035</H-36-2>
                <H-36-3>1.262836</H-36-3>
                <H-37-1>0.04736043</H-37-1>
                <H-37-2>-0.9470938</H-37-2>
                <H-37-3>-2.815625</H-37-3>
                <H-38-1>-0.1162762</H-38-1>
                <H-38-2>-0.8008146</H-38-2>
                <H-38-3>0.06491323</H-38-3>
            </Weight>
        </Hidden>
        <Output>
            <OutputNodeCount>3</OutputNodeCount>
            <Error>0.121641</Error>
        </Output>
    </Layer>
</NeuralNetwork>