<?xml version="1.0" encoding="utf-8"?>
<NeuralNetwork>
    <Algorithm>BP</Algorithm>
    <Layer>
        <Input>
            <InputNodeCount>27</InputNodeCount>
            <Weight>
                <I-1-1>4.198131</I-1-1>
                <I-1-2>0.5688547</I-1-2>
                <I-1-3>1.751413</I-1-3>
                <I-1-4>2.822258</I-1-4>
                <I-1-5>-0.5479746</I-1-5>
                <I-1-6>1.855669</I-1-6>
                <I-1-7>0.7823852</I-1-7>
                <I-1-8>1.987398</I-1-8>
                <I-1-9>2.288941</I-1-9>
                <I-1-10>-0.512416</I-1-10>
                <I-1-11>2.519757</I-1-11>
                <I-1-12>1.786695</I-1-12>
                <I-1-13>-0.4836525</I-1-13>
                <I-2-1>1.453367</I-2-1>
                <I-2-2>0.7709436</I-2-2>
                <I-2-3>1.069549</I-2-3>
                <I-2-4>1.040093</I-2-4>
                <I-2-5>-3.744208</I-2-5>
                <I-2-6>1.607175</I-2-6>
                <I-2-7>-0.540734</I-2-7>
                <I-2-8>0.1542102</I-2-8>
                <I-2-9>0.824844</I-2-9>
                <I-2-10>1.079242</I-2-10>
                <I-2-11>-0.1860914</I-2-11>
                <I-2-12>0.2584292</I-2-12>
                <I-2-13>1.620952</I-2-13>
                <I-3-1>0.484222</I-3-1>
                <I-3-2>0.389554</I-3-2>
                <I-3-3>-3.387777</I-3-3>
                <I-3-4>-1.935393</I-3-4>
                <I-3-5>-0.08885321</I-3-5>
                <I-3-6>-2.126486</I-3-6>
                <I-3-7>-0.589245</I-3-7>
                <I-3-8>-2.06436</I-3-8>
                <I-3-9>-1.043427</I-3-9>
                <I-3-10>1.787761</I-3-10>
                <I-3-11>-0.1491863</I-3-11>
                <I-3-12>2.670205</I-3-12>
                <I-3-13>-0.6292417</I-3-13>
                <I-4-1>1.640342</I-4-1>
                <I-4-2>-4.468076</I-4-2>
                <I-4-3>1.733256</I-4-3>
                <I-4-4>1.882545</I-4-4>
                <I-4-5>-0.6500648</I-4-5>
                <I-4-6>0.1418889</I-4-6>
                <I-4-7>1.537521</I-4-7>
                <I-4-8>0.9072229</I-4-8>
                <I-4-9>2.542865</I-4-9>
                <I-4-10>0.6432424</I-4-10>
                <I-4-11>0.9991927</I-4-11>
                <I-4-12>5.918641</I-4-12>
                <I-4-13>-1.617849</I-4-13>
                <I-5-1>0.02435601</I-5-1>
                <I-5-2>-1.254314</I-5-2>
                <I-5-3>-1.246701</I-5-3>
                <I-5-4>-1.045701</I-5-4>
                <I-5-5>1.862353</I-5-5>
                <I-5-6>-1.842921</I-5-6>
                <I-5-7>1.09988</I-5-7>
                <I-5-8>1.255141</I-5-8>
                <I-5-9>-0.9993335</I-5-9>
                <I-5-10>0.07557442</I-5-10>
                <I-5-11>1.053302</I-5-11>
                <I-5-12>-1.476453</I-5-12>
                <I-5-13>0.6939504</I-5-13>
                <I-6-1>-0.7492545</I-6-1>
                <I-6-2>-0.2070898</I-6-2>
                <I-6-3>-1.670209</I-6-3>
                <I-6-4>0.1456816</I-6-4>
                <I-6-5>-1.148789</I-6-5>
                <I-6-6>-1.508717</I-6-6>
                <I-6-7>0.4300084</I-6-7>
                <I-6-8>0.5998226</I-6-8>
                <I-6-9>0.137361</I-6-9>
                <I-6-10>0.7067925</I-6-10>
                <I-6-11>0.2331216</I-6-11>
                <I-6-12>-1.414242</I-6-12>
                <I-6-13>0.9329869</I-6-13>
                <I-7-1>-3.006974</I-7-1>
                <I-7-2>3.507159</I-7-2>
                <I-7-3>-0.8434367</I-7-3>
                <I-7-4>1.45103</I-7-4>
                <I-7-5>-0.04076704</I-7-5>
                <I-7-6>1.141437</I-7-6>
                <I-7-7>2.110271</I-7-7>
                <I-7-8>0.4720891</I-7-8>
                <I-7-9>1.691744</I-7-9>
                <I-7-10>2.199053</I-7-10>
                <I-7-11>0.3754103</I-7-11>
                <I-7-12>2.462666</I-7-12>
                <I-7-13>4.601704</I-7-13>
                <I-8-1>-0.8047451</I-8-1>
                <I-8-2>-2.171663</I-8-2>
                <I-8-3>-0.2869098</I-8-3>
                <I-8-4>-0.1872225</I-8-4>
                <I-8-5>-0.7664455</I-8-5>
                <I-8-6>1.514008</I-8-6>
                <I-8-7>0.4026636</I-8-7>
                <I-8-8>1.034718</I-8-8>
                <I-8-9>-0.2077529</I-8-9>
                <I-8-10>0.5090414</I-8-10>
                <I-8-11>-0.6249191</I-8-11>
                <I-8-12>-0.8417906</I-8-12>
                <I-8-13>-0.3397628</I-8-13>
                <I-9-1>-1.090346</I-9-1>
                <I-9-2>-0.06374691</I-9-2>
                <I-9-3>1.822612</I-9-3>
                <I-9-4>1.590703</I-9-4>
                <I-9-5>0.01516825</I-9-5>
                <I-9-6>-4.099782</I-9-6>
                <I-9-7>-0.8397895</I-9-7>
                <I-9-8>2.024417</I-9-8>
                <I-9-9>1.150344</I-9-9>
                <I-9-10>-0.8016804</I-9-10>
                <I-9-11>0.3153313</I-9-11>
                <I-9-12>1.685795</I-9-12>
                <I-9-13>-1.154001</I-9-13>
                <I-10-1>1.158605</I-10-1>
                <I-10-2>-1.995503</I-10-2>
                <I-10-3>0.9935521</I-10-3>
                <I-10-4>0.819296</I-10-4>
                <I-10-5>2.985135</I-10-5>
                <I-10-6>3.42103</I-10-6>
                <I-10-7>-3.9989</I-10-7>
                <I-10-8>0.3714721</I-10-8>
                <I-10-9>1.230257</I-10-9>
                <I-10-10>1.366619</I-10-10>
                <I-10-11>-0.1458323</I-10-11>
                <I-10-12>5.67461</I-10-12>
                <I-10-13>-0.7920592</I-10-13>
                <I-11-1>1.969575</I-11-1>
                <I-11-2>-1.041508</I-11-2>
                <I-11-3>-4.541429</I-11-3>
                <I-11-4>-0.1531207</I-11-4>
                <I-11-5>1.280794</I-11-5>
                <I-11-6>-1.136383</I-11-6>
                <I-11-7>0.303926</I-11-7>
                <I-11-8>0.375348</I-11-8>
                <I-11-9>-0.07565048</I-11-9>
                <I-11-10>0.5188941</I-11-10>
                <I-11-11>1.988701</I-11-11>
                <I-11-12>1.148969</I-11-12>
                <I-11-13>-3.505358</I-11-13>
                <I-12-1>5.587603</I-12-1>
                <I-12-2>2.132379</I-12-2>
                <I-12-3>0.05580623</I-12-3>
                <I-12-4>0.8847085</I-12-4>
                <I-12-5>0.4230451</I-12-5>
                <I-12-6>-2.169541</I-12-6>
                <I-12-7>-0.4591492</I-12-7>
                <I-12-8>0.03405275</I-12-8>
                <I-12-9>-0.311168</I-12-9>
                <I-12-10>0.6786119</I-12-10>
                <I-12-11>4.052526</I-12-11>
                <I-12-12>0.9932525</I-12-12>
                <I-12-13>-1.641888</I-12-13>
                <I-13-1>1.11933</I-13-1>
                <I-13-2>-0.1138647</I-13-2>
                <I-13-3>-0.6651198</I-13-3>
                <I-13-4>1.046229</I-13-4>
                <I-13-5>0.7765517</I-13-5>
                <I-13-6>-0.6901812</I-13-6>
                <I-13-7>-1.242878</I-13-7>
                <I-13-8>1.103991</I-13-8>
                <I-13-9>0.962315</I-13-9>
                <I-13-10>1.603695</I-13-10>
                <I-13-11>-1.338426</I-13-11>
                <I-13-12>-1.47396</I-13-12>
                <I-13-13>-2.533866</I-13-13>
                <I-14-1>0.2037718</I-14-1>
                <I-14-2>-3.682398</I-14-2>
                <I-14-3>-3.894798</I-14-3>
                <I-14-4>0.01079327</I-14-4>
                <I-14-5>0.6602567</I-14-5>
                <I-14-6>-1.207579</I-14-6>
                <I-14-7>-1.13811</I-14-7>
                <I-14-8>-0.1191319</I-14-8>
                <I-14-9>-0.01117923</I-14-9>
                <I-14-10>1.26088</I-14-10>
                <I-14-11>-0.09455708</I-14-11>
                <I-14-12>-1.318808</I-14-12>
                <I-14-13>4.660359</I-14-13>
                <I-15-1>-2.617655</I-15-1>
                <I-15-2>-2.218781</I-15-2>
                <I-15-3>-2.362179</I-15-3>
                <I-15-4>0.3475144</I-15-4>
                <I-15-5>3.41435</I-15-5>
                <I-15-6>-1.551509</I-15-6>
                <I-15-7>-0.9933924</I-15-7>
                <I-15-8>0.4348151</I-15-8>
                <I-15-9>0.337834</I-15-9>
                <I-15-10>2.935028</I-15-10>
                <I-15-11>0.5394859</I-15-11>
                <I-15-12>-3.230359</I-15-12>
                <I-15-13>-2.38912</I-15-13>
                <I-16-1>0.07420313</I-16-1>
                <I-16-2>-2.093367</I-16-2>
                <I-16-3>-0.0977861</I-16-3>
                <I-16-4>0.4389539</I-16-4>
                <I-16-5>3.502728</I-16-5>
                <I-16-6>3.823851</I-16-6>
                <I-16-7>1.650759</I-16-7>
                <I-16-8>-0.1023316</I-16-8>
                <I-16-9>-0.3917357</I-16-9>
                <I-16-10>0.8729517</I-16-10>
                <I-16-11>0.8527541</I-16-11>
                <I-16-12>-2.750243</I-16-12>
                <I-16-13>-2.479754</I-16-13>
                <I-17-1>-0.8088611</I-17-1>
                <I-17-2>0.2027241</I-17-2>
                <I-17-3>-2.742957</I-17-3>
                <I-17-4>0.1482538</I-17-4>
                <I-17-5>-0.9773828</I-17-5>
                <I-17-6>-2.403029</I-17-6>
                <I-17-7>0.2864271</I-17-7>
                <I-17-8>-0.07033509</I-17-8>
                <I-17-9>-0.05838238</I-17-9>
                <I-17-10>-1.285001</I-17-10>
                <I-17-11>-1.091887</I-17-11>
                <I-17-12>0.6167996</I-17-12>
                <I-17-13>2.828206</I-17-13>
                <I-18-1>-4.052565</I-18-1>
                <I-18-2>0.2466321</I-18-2>
                <I-18-3>2.970113</I-18-3>
                <I-18-4>0.07073577</I-18-4>
                <I-18-5>-1.347333</I-18-5>
                <I-18-6>-3.169621</I-18-6>
                <I-18-7>1.790675</I-18-7>
                <I-18-8>0.7865254</I-18-8>
                <I-18-9>-0.2946766</I-18-9>
                <I-18-10>-0.3532803</I-18-10>
                <I-18-11>1.173411</I-18-11>
                <I-18-12>-4.946522</I-18-12>
                <I-18-13>-0.1738797</I-18-13>
                <I-19-1>-3.816564</I-19-1>
                <I-19-2>0.377271</I-19-2>
                <I-19-3>-0.6170244</I-19-3>
                <I-19-4>0.4494775</I-19-4>
                <I-19-5>2.69759</I-19-5>
                <I-19-6>0.6021502</I-19-6>
                <I-19-7>0.3879363</I-19-7>
                <I-19-8>-0.3717425</I-19-8>
                <I-19-9>-0.1090026</I-19-9>
                <I-19-10>-1.445659</I-19-10>
                <I-19-11>-0.05298609</I-19-11>
                <I-19-12>-1.787119</I-19-12>
                <I-19-13>2.384802</I-19-13>
                <I-20-1>-3.126304</I-20-1>
                <I-20-2>-2.632259</I-20-2>
                <I-20-3>-1.292068</I-20-3>
                <I-20-4>0.599126</I-20-4>
                <I-20-5>-0.7308306</I-20-5>
                <I-20-6>-0.1868355</I-20-6>
                <I-20-7>0.9495472</I-20-7>
                <I-20-8>-1.619612</I-20-8>
                <I-20-9>0.05716911</I-20-9>
                <I-20-10>-1.062991</I-20-10>
                <I-20-11>0.1353292</I-20-11>
                <I-20-12>-0.8403122</I-20-12>
                <I-20-13>1.120225</I-20-13>
                <I-21-1>1.374546</I-21-1>
                <I-21-2>0.2291363</I-21-2>
                <I-21-3>1.045589</I-21-3>
                <I-21-4>1.044307</I-21-4>
                <I-21-5>-0.5585771</I-21-5>
                <I-21-6>-3.573404</I-21-6>
                <I-21-7>0.8588483</I-21-7>
                <I-21-8>-2.677051</I-21-8>
                <I-21-9>0.3739522</I-21-9>
                <I-21-10>-1.23003</I-21-10>
                <I-21-11>-0.3995634</I-21-11>
                <I-21-12>-2.532218</I-21-12>
                <I-21-13>3.612768</I-21-13>
                <I-22-1>0.2780363</I-22-1>
                <I-22-2>0.6386845</I-22-2>
                <I-22-3>0.1896867</I-22-3>
                <I-22-4>1.193128</I-22-4>
                <I-22-5>0.2835074</I-22-5>
                <I-22-6>-2.521755</I-22-6>
                <I-22-7>2.034105</I-22-7>
                <I-22-8>-0.4095761</I-22-8>
                <I-22-9>0.2071925</I-22-9>
                <I-22-10>0.8568724</I-22-10>
                <I-22-11>-1.077944</I-22-11>
                <I-22-12>-3.316609</I-22-12>
                <I-22-13>-0.2870521</I-22-13>
                <I-23-1>2.70421</I-23-1>
                <I-23-2>0.680426</I-23-2>
                <I-23-3>-1.830604</I-23-3>
                <I-23-4>0.1625984</I-23-4>
                <I-23-5>0.1824656</I-23-5>
                <I-23-6>-1.137599</I-23-6>
                <I-23-7>-2.883844</I-23-7>
                <I-23-8>1.993505</I-23-8>
                <I-23-9>1.142027</I-23-9>
                <I-23-10>1.232983</I-23-10>
                <I-23-11>0.3781426</I-23-11>
                <I-23-12>2.508291</I-23-12>
                <I-23-13>-0.250664</I-23-13>
                <I-24-1>-3.936585</I-24-1>
                <I-24-2>-0.4551338</I-24-2>
                <I-24-3>3.508758</I-24-3>
                <I-24-4>1.253276</I-24-4>
                <I-24-5>5.919391</I-24-5>
                <I-24-6>-2.810197</I-24-6>
                <I-24-7>1.11768</I-24-7>
                <I-24-8>2.357152</I-24-8>
                <I-24-9>1.064746</I-24-9>
                <I-24-10>4.561434</I-24-10>
                <I-24-11>-1.377341</I-24-11>
                <I-24-12>-0.5350794</I-24-12>
                <I-24-13>2.112254</I-24-13>
                <I-25-1>0.8943057</I-25-1>
                <I-25-2>-0.6209329</I-25-2>
                <I-25-3>4.929126</I-25-3>
                <I-25-4>0.316273</I-25-4>
                <I-25-5>1.194684</I-25-5>
                <I-25-6>2.875917</I-25-6>
                <I-25-7>-0.09795973</I-25-7>
                <I-25-8>2.549639</I-25-8>
                <I-25-9>0.4737601</I-25-9>
                <I-25-10>1.065122</I-25-10>
                <I-25-11>-1.19514</I-25-11>
                <I-25-12>2.438201</I-25-12>
                <I-25-13>0.2752288</I-25-13>
                <I-26-1>0.2162507</I-26-1>
                <I-26-2>-3.010896</I-26-2>
                <I-26-3>-2.602459</I-26-3>
                <I-26-4>0.2858358</I-26-4>
                <I-26-5>1.22425</I-26-5>
                <I-26-6>3.423198</I-26-6>
                <I-26-7>0.7029901</I-26-7>
                <I-26-8>-0.3761131</I-26-8>
                <I-26-9>0.04870209</I-26-9>
                <I-26-10>0.2419913</I-26-10>
                <I-26-11>0.1268439</I-26-11>
                <I-26-12>-1.674988</I-26-12>
                <I-26-13>-2.723367</I-26-13>
                <I-27-1>-2.56509</I-27-1>
                <I-27-2>0.6265294</I-27-2>
                <I-27-3>-5.332191</I-27-3>
                <I-27-4>-0.5928807</I-27-4>
                <I-27-5>-0.4755619</I-27-5>
                <I-27-6>-1.846908</I-27-6>
                <I-27-7>-1.993858</I-27-7>
                <I-27-8>-1.857045</I-27-8>
                <I-27-9>0.2696502</I-27-9>
                <I-27-10>-0.7039933</I-27-10>
                <I-27-11>-0.5803743</I-27-11>
                <I-27-12>0.1598004</I-27-12>
                <I-27-13>0.5668711</I-27-13>
            </Weight>
        </Input>
        <Hidden>
            <HiddenNodeCount>13</HiddenNodeCount>
            <Weight>
                <H-1-1>0.6657841</H-1-1>
                <H-1-2>-1.370206</H-1-2>
                <H-1-3>4.009848</H-1-3>
                <H-1-4>2.725602</H-1-4>
                <H-1-5>-1.100227</H-1-5>
                <H-2-1>1.761761</H-2-1>
                <H-2-2>-2.923637</H-2-2>
                <H-2-3>-2.290682</H-2-3>
                <H-2-4>-6.052332</H-2-4>
                <H-2-5>-0.3474608</H-2-5>
                <H-3-1>-1.130361</H-3-1>
                <H-3-2>-1.262296</H-3-2>
                <H-3-3>4.124958</H-3-3>
                <H-3-4>3.961354</H-3-4>
                <H-3-5>4.18794</H-3-5>
                <H-4-1>0.01257168</H-4-1>
                <H-4-2>-1.053902</H-4-2>
                <H-4-3>0.0357761</H-4-3>
                <H-4-4>2.037397</H-4-4>
                <H-4-5>3.304963</H-4-5>
                <H-5-1>0.04373303</H-5-1>
                <H-5-2>0.5540527</H-5-2>
                <H-5-3>-3.22654</H-5-3>
                <H-5-4>3.49545</H-5-4>
                <H-5-5>-2.896795</H-5-5>
                <H-6-1>0.6802772</H-6-1>
                <H-6-2>-1.623883</H-6-2>
                <H-6-3>0.007146076</H-6-3>
                <H-6-4>-1.745859</H-6-4>
                <H-6-5>-4.921626</H-6-5>
                <H-7-1>4.409444</H-7-1>
                <H-7-2>-1.715145</H-7-2>
                <H-7-3>1.727517</H-7-3>
                <H-7-4>2.466857</H-7-4>
                <H-7-5>-0.04686455</H-7-5>
                <H-8-1>1.805318</H-8-1>
                <H-8-2>1.0171</H-8-2>
                <H-8-3>-1.510692</H-8-3>
                <H-8-4>-5.360763</H-8-4>
                <H-8-5>3.954745</H-8-5>
                <H-9-1>-0.9874411</H-9-1>
                <H-9-2>-0.0480296</H-9-2>
                <H-9-3>-0.4083308</H-9-3>
                <H-9-4>0.7506886</H-9-4>
                <H-9-5>3.349779</H-9-5>
                <H-10-1>-0.7923695</H-10-1>
                <H-10-2>-1.707633</H-10-2>
                <H-10-3>-1.176064</H-10-3>
                <H-10-4>-5.857092</H-10-4>
                <H-10-5>-0.4238143</H-10-5>
                <H-11-1>-1.275315</H-11-1>
                <H-11-2>2.955695</H-11-2>
                <H-11-3>-3.53414</H-11-3>
                <H-11-4>-1.038475</H-11-4>
                <H-11-5>-2.432439</H-11-5>
                <H-12-1>-2.612189</H-12-1>
                <H-12-2>5.600644</H-12-2>
                <H-12-3>0.3513747</H-12-3>
                <H-12-4>4.268399</H-12-4>
                <H-12-5>0.5477135</H-12-5>
                <H-13-1>0.1048597</H-13-1>
                <H-13-2>-0.1906549</H-13-2>
                <H-13-3>0.6188428</H-13-3>
                <H-13-4>-1.610036</H-13-4>
                <H-13-5>-6.998763</H-13-5>
            </Weight>
        </Hidden>
        <Output>
            <OutputNodeCount>5</OutputNodeCount>
        </Output>
    </Layer>
</NeuralNetwork>