<?xml version="1.0" encoding="utf-8"?>
<NeuralNetwork>
    <Algorithm>BP</Algorithm>
    <Layer>
        <Input>
            <InputNodeCount>34</InputNodeCount>
            <Weight>
                <I-1-1>1.777872</I-1-1>
                <I-1-2>5.31963</I-1-2>
                <I-1-3>1.979919</I-1-3>
                <I-1-4>-0.262298</I-1-4>
                <I-1-5>4.780673</I-1-5>
                <I-1-6>-0.2920208</I-1-6>
                <I-1-7>-0.753009</I-1-7>
                <I-1-8>-1.302235</I-1-8>
                <I-1-9>0.6675618</I-1-9>
                <I-1-10>-1.288542</I-1-10>
                <I-1-11>0.6225014</I-1-11>
                <I-1-12>0.3935678</I-1-12>
                <I-1-13>2.486908</I-1-13>
                <I-1-14>-7.678123</I-1-14>
                <I-1-15>-1.807676</I-1-15>
                <I-1-16>2.891512</I-1-16>
                <I-1-17>-1.93046</I-1-17>
                <I-2-1>4.622883</I-2-1>
                <I-2-2>-4.100807</I-2-2>
                <I-2-3>0.5512284</I-2-3>
                <I-2-4>5.07202</I-2-4>
                <I-2-5>2.592786</I-2-5>
                <I-2-6>2.229252</I-2-6>
                <I-2-7>-3.479096</I-2-7>
                <I-2-8>0.4074311</I-2-8>
                <I-2-9>-0.3532553</I-2-9>
                <I-2-10>0.5740679</I-2-10>
                <I-2-11>-0.044628</I-2-11>
                <I-2-12>-0.266807</I-2-12>
                <I-2-13>2.627537</I-2-13>
                <I-2-14>-0.9242354</I-2-14>
                <I-2-15>0.6130816</I-2-15>
                <I-2-16>2.871864</I-2-16>
                <I-2-17>-1.349907</I-2-17>
                <I-3-1>-6.448716</I-3-1>
                <I-3-2>2.800526</I-3-2>
                <I-3-3>-0.005854154</I-3-3>
                <I-3-4>-3.619803</I-3-4>
                <I-3-5>-2.274946</I-3-5>
                <I-3-6>3.02448</I-3-6>
                <I-3-7>-2.501375</I-3-7>
                <I-3-8>-10.27835</I-3-8>
                <I-3-9>0.6797999</I-3-9>
                <I-3-10>-1.441405</I-3-10>
                <I-3-11>2.431606</I-3-11>
                <I-3-12>-0.3929146</I-3-12>
                <I-3-13>0.9061673</I-3-13>
                <I-3-14>-2.484209</I-3-14>
                <I-3-15>-0.09485692</I-3-15>
                <I-3-16>-1.329993</I-3-16>
                <I-3-17>-4.035815</I-3-17>
                <I-4-1>-0.1223914</I-4-1>
                <I-4-2>5.072055</I-4-2>
                <I-4-3>1.892331</I-4-3>
                <I-4-4>-1.030532</I-4-4>
                <I-4-5>0.4844252</I-4-5>
                <I-4-6>0.7993004</I-4-6>
                <I-4-7>-0.278941</I-4-7>
                <I-4-8>-1.165448</I-4-8>
                <I-4-9>1.017707</I-4-9>
                <I-4-10>1.798099</I-4-10>
                <I-4-11>-1.631173</I-4-11>
                <I-4-12>1.932721</I-4-12>
                <I-4-13>0.1904837</I-4-13>
                <I-4-14>2.126964</I-4-14>
                <I-4-15>2.220599</I-4-15>
                <I-4-16>1.366101</I-4-16>
                <I-4-17>-0.799887</I-4-17>
                <I-5-1>1.362537</I-5-1>
                <I-5-2>3.360869</I-5-2>
                <I-5-3>-1.231576</I-5-3>
                <I-5-4>1.01158</I-5-4>
                <I-5-5>-1.443533</I-5-5>
                <I-5-6>-1.549321</I-5-6>
                <I-5-7>-0.6959637</I-5-7>
                <I-5-8>0.2578782</I-5-8>
                <I-5-9>-0.8680451</I-5-9>
                <I-5-10>-2.76607</I-5-10>
                <I-5-11>-2.967469</I-5-11>
                <I-5-12>1.878105</I-5-12>
                <I-5-13>-2.392874</I-5-13>
                <I-5-14>-0.3477946</I-5-14>
                <I-5-15>-2.086451</I-5-15>
                <I-5-16>0.9565102</I-5-16>
                <I-5-17>2.933859</I-5-17>
                <I-6-1>0.1814881</I-6-1>
                <I-6-2>1.944723</I-6-2>
                <I-6-3>0.8867871</I-6-3>
                <I-6-4>0.215679</I-6-4>
                <I-6-5>-0.4432008</I-6-5>
                <I-6-6>-4.108899</I-6-6>
                <I-6-7>-0.03228377</I-6-7>
                <I-6-8>0.2342078</I-6-8>
                <I-6-9>0.8720655</I-6-9>
                <I-6-10>-0.5521396</I-6-10>
                <I-6-11>2.517007</I-6-11>
                <I-6-12>1.673556</I-6-12>
                <I-6-13>-0.4009778</I-6-13>
                <I-6-14>-1.096862</I-6-14>
                <I-6-15>-8.800463</I-6-15>
                <I-6-16>0.3771699</I-6-16>
                <I-6-17>-0.517212</I-6-17>
                <I-7-1>3.251261</I-7-1>
                <I-7-2>1.858835</I-7-2>
                <I-7-3>-0.8161595</I-7-3>
                <I-7-4>4.339835</I-7-4>
                <I-7-5>-0.001513424</I-7-5>
                <I-7-6>-1.091733</I-7-6>
                <I-7-7>-2.608206</I-7-7>
                <I-7-8>1.579702</I-7-8>
                <I-7-9>-1.565425</I-7-9>
                <I-7-10>-2.52812</I-7-10>
                <I-7-11>-0.2024403</I-7-11>
                <I-7-12>0.9535728</I-7-12>
                <I-7-13>-2.097312</I-7-13>
                <I-7-14>-1.260612</I-7-14>
                <I-7-15>-1.358544</I-7-15>
                <I-7-16>0.4228263</I-7-16>
                <I-7-17>2.774533</I-7-17>
                <I-8-1>4.221627</I-8-1>
                <I-8-2>2.117218</I-8-2>
                <I-8-3>0.1364666</I-8-3>
                <I-8-4>1.909766</I-8-4>
                <I-8-5>-1.157509</I-8-5>
                <I-8-6>1.717567</I-8-6>
                <I-8-7>2.604305</I-8-7>
                <I-8-8>6.633852</I-8-8>
                <I-8-9>2.953201</I-8-9>
                <I-8-10>-0.9171793</I-8-10>
                <I-8-11>-1.412818</I-8-11>
                <I-8-12>3.761934</I-8-12>
                <I-8-13>1.206974</I-8-13>
                <I-8-14>-1.966482</I-8-14>
                <I-8-15>2.451106</I-8-15>
                <I-8-16>0.618847</I-8-16>
                <I-8-17>-2.631509</I-8-17>
                <I-9-1>-0.3531984</I-9-1>
                <I-9-2>3.658776</I-9-2>
                <I-9-3>0.4350817</I-9-3>
                <I-9-4>3.46182</I-9-4>
                <I-9-5>2.557389</I-9-5>
                <I-9-6>0.4109765</I-9-6>
                <I-9-7>-0.9354424</I-9-7>
                <I-9-8>0.6421613</I-9-8>
                <I-9-9>0.991668</I-9-9>
                <I-9-10>1.615869</I-9-10>
                <I-9-11>3.022002</I-9-11>
                <I-9-12>0.5315861</I-9-12>
                <I-9-13>3.574013</I-9-13>
                <I-9-14>6.132035</I-9-14>
                <I-9-15>0.6580144</I-9-15>
                <I-9-16>2.191131</I-9-16>
                <I-9-17>-1.103068</I-9-17>
                <I-10-1>-1.30508</I-10-1>
                <I-10-2>-1.684849</I-10-2>
                <I-10-3>0.9702621</I-10-3>
                <I-10-4>-1.570561</I-10-4>
                <I-10-5>1.938428</I-10-5>
                <I-10-6>0.542127</I-10-6>
                <I-10-7>-1.371654</I-10-7>
                <I-10-8>-2.243163</I-10-8>
                <I-10-9>1.473414</I-10-9>
                <I-10-10>1.587615</I-10-10>
                <I-10-11>-0.2212051</I-10-11>
                <I-10-12>-1.72173</I-10-12>
                <I-10-13>2.013701</I-10-13>
                <I-10-14>-0.8584446</I-10-14>
                <I-10-15>0.2329303</I-10-15>
                <I-10-16>2.498156</I-10-16>
                <I-10-17>-0.4695027</I-10-17>
                <I-11-1>-1.684114</I-11-1>
                <I-11-2>-5.425509</I-11-2>
                <I-11-3>0.3249594</I-11-3>
                <I-11-4>-2.763496</I-11-4>
                <I-11-5>3.243101</I-11-5>
                <I-11-6>0.2229973</I-11-6>
                <I-11-7>3.150914</I-11-7>
                <I-11-8>-1.675884</I-11-8>
                <I-11-9>0.6506897</I-11-9>
                <I-11-10>0.6566476</I-11-10>
                <I-11-11>5.640202</I-11-11>
                <I-11-12>-1.897321</I-11-12>
                <I-11-13>3.413691</I-11-13>
                <I-11-14>-5.242522</I-11-14>
                <I-11-15>1.068687</I-11-15>
                <I-11-16>1.98105</I-11-16>
                <I-11-17>-1.777104</I-11-17>
                <I-12-1>1.205924</I-12-1>
                <I-12-2>0.5659667</I-12-2>
                <I-12-3>0.06316163</I-12-3>
                <I-12-4>0.02227115</I-12-4>
                <I-12-5>3.073531</I-12-5>
                <I-12-6>0.08958361</I-12-6>
                <I-12-7>-3.390955</I-12-7>
                <I-12-8>-1.714165</I-12-8>
                <I-12-9>-0.4449914</I-12-9>
                <I-12-10>1.750976</I-12-10>
                <I-12-11>0.9176209</I-12-11>
                <I-12-12>-2.959287</I-12-12>
                <I-12-13>3.242697</I-12-13>
                <I-12-14>-0.989642</I-12-14>
                <I-12-15>-0.3990672</I-12-15>
                <I-12-16>1.372836</I-12-16>
                <I-12-17>-0.2412138</I-12-17>
                <I-13-1>-2.400805</I-13-1>
                <I-13-2>-0.4117723</I-13-2>
                <I-13-3>0.3036086</I-13-3>
                <I-13-4>-2.282354</I-13-4>
                <I-13-5>0.397274</I-13-5>
                <I-13-6>1.13069</I-13-6>
                <I-13-7>5.317819</I-13-7>
                <I-13-8>-4.087101</I-13-8>
                <I-13-9>0.7563778</I-13-9>
                <I-13-10>-0.269866</I-13-10>
                <I-13-11>0.5435736</I-13-11>
                <I-13-12>-1.170146</I-13-12>
                <I-13-13>1.224748</I-13-13>
                <I-13-14>-0.2541842</I-13-14>
                <I-13-15>0.8841005</I-13-15>
                <I-13-16>-1.296151</I-13-16>
                <I-13-17>-2.887043</I-13-17>
                <I-14-1>-0.1930967</I-14-1>
                <I-14-2>1.660976</I-14-2>
                <I-14-3>-1.962853</I-14-3>
                <I-14-4>-0.9253771</I-14-4>
                <I-14-5>1.645493</I-14-5>
                <I-14-6>1.909524</I-14-6>
                <I-14-7>1.85689</I-14-7>
                <I-14-8>1.634993</I-14-8>
                <I-14-9>0.03076091</I-14-9>
                <I-14-10>0.8558267</I-14-10>
                <I-14-11>-0.3081267</I-14-11>
                <I-14-12>3.09375</I-14-12>
                <I-14-13>2.774042</I-14-13>
                <I-14-14>2.854477</I-14-14>
                <I-14-15>1.715527</I-14-15>
                <I-14-16>1.851067</I-14-16>
                <I-14-17>-0.6108887</I-14-17>
                <I-15-1>-1.285448</I-15-1>
                <I-15-2>1.616315</I-15-2>
                <I-15-3>1.452152</I-15-3>
                <I-15-4>-3.298939</I-15-4>
                <I-15-5>-2.52183</I-15-5>
                <I-15-6>-1.654777</I-15-6>
                <I-15-7>-2.555477</I-15-7>
                <I-15-8>-2.239389</I-15-8>
                <I-15-9>0.5523329</I-15-9>
                <I-15-10>-1.728639</I-15-10>
                <I-15-11>-3.339782</I-15-11>
                <I-15-12>4.088415</I-15-12>
                <I-15-13>-3.396577</I-15-13>
                <I-15-14>2.150913</I-15-14>
                <I-15-15>-3.5423</I-15-15>
                <I-15-16>-1.370612</I-15-16>
                <I-15-17>0.9143474</I-15-17>
                <I-16-1>2.097766</I-16-1>
                <I-16-2>3.671672</I-16-2>
                <I-16-3>-0.5400859</I-16-3>
                <I-16-4>2.445428</I-16-4>
                <I-16-5>-3.27599</I-16-5>
                <I-16-6>1.897414</I-16-6>
                <I-16-7>2.028259</I-16-7>
                <I-16-8>1.559443</I-16-8>
                <I-16-9>-2.586716</I-16-9>
                <I-16-10>0.1053881</I-16-10>
                <I-16-11>2.119157</I-16-11>
                <I-16-12>2.246393</I-16-12>
                <I-16-13>-4.714941</I-16-13>
                <I-16-14>2.619051</I-16-14>
                <I-16-15>3.387596</I-16-15>
                <I-16-16>-3.218356</I-16-16>
                <I-16-17>-1.415824</I-16-17>
                <I-17-1>-2.109864</I-17-1>
                <I-17-2>-3.025016</I-17-2>
                <I-17-3>-0.4297475</I-17-3>
                <I-17-4>-2.001129</I-17-4>
                <I-17-5>-0.879281</I-17-5>
                <I-17-6>-1.521121</I-17-6>
                <I-17-7>0.2687739</I-17-7>
                <I-17-8>-1.094875</I-17-8>
                <I-17-9>-0.3231324</I-17-9>
                <I-17-10>-3.209016</I-17-10>
                <I-17-11>-1.478235</I-17-11>
                <I-17-12>-0.9234039</I-17-12>
                <I-17-13>-0.03295847</I-17-13>
                <I-17-14>0.3653705</I-17-14>
                <I-17-15>-2.773844</I-17-15>
                <I-17-16>-0.9448897</I-17-16>
                <I-17-17>1.687072</I-17-17>
                <I-18-1>-0.4061761</I-18-1>
                <I-18-2>-4.764259</I-18-2>
                <I-18-3>-4.299584</I-18-3>
                <I-18-4>-0.06562562</I-18-4>
                <I-18-5>-2.680352</I-18-5>
                <I-18-6>-0.1470339</I-18-6>
                <I-18-7>-0.8693175</I-18-7>
                <I-18-8>0.2369582</I-18-8>
                <I-18-9>-4.18403</I-18-9>
                <I-18-10>1.089526</I-18-10>
                <I-18-11>-5.902704</I-18-11>
                <I-18-12>-2.571494</I-18-12>
                <I-18-13>-3.664735</I-18-13>
                <I-18-14>-3.152635</I-18-14>
                <I-18-15>-1.145277</I-18-15>
                <I-18-16>-2.322974</I-18-16>
                <I-18-17>-1.409361</I-18-17>
                <I-19-1>-0.09596239</I-19-1>
                <I-19-2>-0.8875735</I-19-2>
                <I-19-3>1.075609</I-19-3>
                <I-19-4>-1.625127</I-19-4>
                <I-19-5>-2.382677</I-19-5>
                <I-19-6>-1.308844</I-19-6>
                <I-19-7>-3.315921</I-19-7>
                <I-19-8>-3.341854</I-19-8>
                <I-19-9>-0.09793317</I-19-9>
                <I-19-10>1.529162</I-19-10>
                <I-19-11>-2.613597</I-19-11>
                <I-19-12>-5.07258</I-19-12>
                <I-19-13>-5.603636</I-19-13>
                <I-19-14>4.813171</I-19-14>
                <I-19-15>-1.142291</I-19-15>
                <I-19-16>-2.153031</I-19-16>
                <I-19-17>1.035573</I-19-17>
                <I-20-1>-0.4098837</I-20-1>
                <I-20-2>-0.7223039</I-20-2>
                <I-20-3>1.33379</I-20-3>
                <I-20-4>-0.2041953</I-20-4>
                <I-20-5>0.6373724</I-20-5>
                <I-20-6>-1.034011</I-20-6>
                <I-20-7>0.4691051</I-20-7>
                <I-20-8>0.2112153</I-20-8>
                <I-20-9>1.134049</I-20-9>
                <I-20-10>1.421711</I-20-10>
                <I-20-11>2.864088</I-20-11>
                <I-20-12>0.1635896</I-20-12>
                <I-20-13>1.092707</I-20-13>
                <I-20-14>-0.1697471</I-20-14>
                <I-20-15>-3.201463</I-20-15>
                <I-20-16>-0.2153735</I-20-16>
                <I-20-17>-1.613776</I-20-17>
                <I-21-1>1.101207</I-21-1>
                <I-21-2>-0.6693059</I-21-2>
                <I-21-3>0.5050282</I-21-3>
                <I-21-4>1.870728</I-21-4>
                <I-21-5>1.074824</I-21-5>
                <I-21-6>0.2781463</I-21-6>
                <I-21-7>-0.7407971</I-21-7>
                <I-21-8>0.7674434</I-21-8>
                <I-21-9>-0.1226608</I-21-9>
                <I-21-10>0.4323806</I-21-10>
                <I-21-11>1.368205</I-21-11>
                <I-21-12>-0.1955594</I-21-12>
                <I-21-13>0.2513157</I-21-13>
                <I-21-14>-0.1566551</I-21-14>
                <I-21-15>0.6232106</I-21-15>
                <I-21-16>-0.2269243</I-21-16>
                <I-21-17>0.1263013</I-21-17>
                <I-22-1>1.553097</I-22-1>
                <I-22-2>-0.5492167</I-22-2>
                <I-22-3>0.8502378</I-22-3>
                <I-22-4>0.5768445</I-22-4>
                <I-22-5>0.4023378</I-22-5>
                <I-22-6>1.968075</I-22-6>
                <I-22-7>1.774133</I-22-7>
                <I-22-8>3.267148</I-22-8>
                <I-22-9>2.108042</I-22-9>
                <I-22-10>1.002214</I-22-10>
                <I-22-11>0.7544129</I-22-11>
                <I-22-12>1.217549</I-22-12>
                <I-22-13>1.940938</I-22-13>
                <I-22-14>-0.6459922</I-22-14>
                <I-22-15>2.573291</I-22-15>
                <I-22-16>0.08559032</I-22-16>
                <I-22-17>-2.681235</I-22-17>
                <I-23-1>-0.7519022</I-23-1>
                <I-23-2>0.2626499</I-23-2>
                <I-23-3>1.152313</I-23-3>
                <I-23-4>1.216147</I-23-4>
                <I-23-5>2.189403</I-23-5>
                <I-23-6>1.234878</I-23-6>
                <I-23-7>0.02647002</I-23-7>
                <I-23-8>0.2483303</I-23-8>
                <I-23-9>0.9551271</I-23-9>
                <I-23-10>2.226551</I-23-10>
                <I-23-11>3.20877</I-23-11>
                <I-23-12>-0.6134015</I-23-12>
                <I-23-13>3.072968</I-23-13>
                <I-23-14>3.290948</I-23-14>
                <I-23-15>1.514539</I-23-15>
                <I-23-16>0.797528</I-23-16>
                <I-23-17>-1.813055</I-23-17>
                <I-24-1>-0.2397852</I-24-1>
                <I-24-2>-3.721759</I-24-2>
                <I-24-3>-0.6646103</I-24-3>
                <I-24-4>-0.8630497</I-24-4>
                <I-24-5>1.656536</I-24-5>
                <I-24-6>0.07055735</I-24-6>
                <I-24-7>4.688759</I-24-7>
                <I-24-8>0.8652025</I-24-8>
                <I-24-9>-0.9047616</I-24-9>
                <I-24-10>-0.8643196</I-24-10>
                <I-24-11>6.095289</I-24-11>
                <I-24-12>0.1636581</I-24-12>
                <I-24-13>1.568504</I-24-13>
                <I-24-14>-4.201424</I-24-14>
                <I-24-15>0.8498685</I-24-15>
                <I-24-16>-0.3070431</I-24-16>
                <I-24-17>-1.087772</I-24-17>
                <I-25-1>2.534753</I-25-1>
                <I-25-2>2.07355</I-25-2>
                <I-25-3>-0.6554635</I-25-3>
                <I-25-4>1.775438</I-25-4>
                <I-25-5>1.460944</I-25-5>
                <I-25-6>-0.5028098</I-25-6>
                <I-25-7>-2.014326</I-25-7>
                <I-25-8>0.6308559</I-25-8>
                <I-25-9>-1.840174</I-25-9>
                <I-25-10>0.4150126</I-25-10>
                <I-25-11>0.9949501</I-25-11>
                <I-25-12>-1.038678</I-25-12>
                <I-25-13>1.258048</I-25-13>
                <I-25-14>-0.01653308</I-25-14>
                <I-25-15>-0.3300284</I-25-15>
                <I-25-16>-1.169483</I-25-16>
                <I-25-17>0.6980717</I-25-17>
                <I-26-1>-1.088578</I-26-1>
                <I-26-2>1.331375</I-26-2>
                <I-26-3>-0.6153717</I-26-3>
                <I-26-4>-0.48094</I-26-4>
                <I-26-5>-1.307443</I-26-5>
                <I-26-6>0.737714</I-26-6>
                <I-26-7>6.947017</I-26-7>
                <I-26-8>-1.49552</I-26-8>
                <I-26-9>-0.6067305</I-26-9>
                <I-26-10>-1.518408</I-26-10>
                <I-26-11>0.835757</I-26-11>
                <I-26-12>0.8462194</I-26-12>
                <I-26-13>-0.6023526</I-26-13>
                <I-26-14>0.9519694</I-26-14>
                <I-26-15>0.9099059</I-26-15>
                <I-26-16>-3.536111</I-26-16>
                <I-26-17>-2.148017</I-26-17>
                <I-27-1>1.261478</I-27-1>
                <I-27-2>3.24537</I-27-2>
                <I-27-3>-2.769565</I-27-3>
                <I-27-4>0.9265507</I-27-4>
                <I-27-5>-0.002675219</I-27-5>
                <I-27-6>1.806641</I-27-6>
                <I-27-7>3.120834</I-27-7>
                <I-27-8>4.14058</I-27-8>
                <I-27-9>-1.593272</I-27-9>
                <I-27-10>-0.4832201</I-27-10>
                <I-27-11>0.1332413</I-27-11>
                <I-27-12>5.112866</I-27-12>
                <I-27-13>0.9985057</I-27-13>
                <I-27-14>3.846437</I-27-14>
                <I-27-15>1.669893</I-27-15>
                <I-27-16>-0.3887541</I-27-16>
                <I-27-17>-0.03125232</I-27-17>
                <I-28-1>1.899315</I-28-1>
                <I-28-2>1.205051</I-28-2>
                <I-28-3>-0.8977908</I-28-3>
                <I-28-4>3.110618</I-28-4>
                <I-28-5>-0.1351213</I-28-5>
                <I-28-6>1.861959</I-28-6>
                <I-28-7>2.358832</I-28-7>
                <I-28-8>2.076683</I-28-8>
                <I-28-9>-1.503321</I-28-9>
                <I-28-10>1.094635</I-28-10>
                <I-28-11>2.766551</I-28-11>
                <I-28-12>-0.8432148</I-28-12>
                <I-28-13>-0.6698586</I-28-13>
                <I-28-14>0.3445625</I-28-14>
                <I-28-15>3.724428</I-28-15>
                <I-28-16>-0.7087146</I-28-16>
                <I-28-17>-1.010204</I-28-17>
                <I-29-1>-0.3522267</I-29-1>
                <I-29-2>-2.273556</I-29-2>
                <I-29-3>-0.9659641</I-29-3>
                <I-29-4>0.8665426</I-29-4>
                <I-29-5>1.185825</I-29-5>
                <I-29-6>0.2162963</I-29-6>
                <I-29-7>1.642124</I-29-7>
                <I-29-8>0.8991547</I-29-8>
                <I-29-9>-0.4727477</I-29-9>
                <I-29-10>-0.4143866</I-29-10>
                <I-29-11>0.9843925</I-29-11>
                <I-29-12>-2.416565</I-29-12>
                <I-29-13>1.786126</I-29-13>
                <I-29-14>-0.7447764</I-29-14>
                <I-29-15>0.5818865</I-29-15>
                <I-29-16>0.2178846</I-29-16>
                <I-29-17>0.4665185</I-29-17>
                <I-30-1>0.4153248</I-30-1>
                <I-30-2>-2.940126</I-30-2>
                <I-30-3>-2.701778</I-30-3>
                <I-30-4>1.704001</I-30-4>
                <I-30-5>0.1202864</I-30-5>
                <I-30-6>0.8081185</I-30-6>
                <I-30-7>1.165811</I-30-7>
                <I-30-8>1.622833</I-30-8>
                <I-30-9>-2.368535</I-30-9>
                <I-30-10>1.589942</I-30-10>
                <I-30-11>-1.146974</I-30-11>
                <I-30-12>-3.287176</I-30-12>
                <I-30-13>-0.2076762</I-30-13>
                <I-30-14>-2.701644</I-30-14>
                <I-30-15>1.254632</I-30-15>
                <I-30-16>-0.2655191</I-30-16>
                <I-30-17>-1.031556</I-30-17>
                <I-31-1>0.7818878</I-31-1>
                <I-31-2>-1.147978</I-31-2>
                <I-31-3>-0.0541748</I-31-3>
                <I-31-4>1.081854</I-31-4>
                <I-31-5>0.3427836</I-31-5>
                <I-31-6>0.4417595</I-31-6>
                <I-31-7>-0.1279967</I-31-7>
                <I-31-8>-0.1882669</I-31-8>
                <I-31-9>-0.239746</I-31-9>
                <I-31-10>1.935902</I-31-10>
                <I-31-11>0.5417848</I-31-11>
                <I-31-12>-4.566664</I-31-12>
                <I-31-13>-1.013338</I-31-13>
                <I-31-14>1.422757</I-31-14>
                <I-31-15>1.542848</I-31-15>
                <I-31-16>-0.3199396</I-31-16>
                <I-31-17>0.2153579</I-31-17>
                <I-32-1>2.191982</I-32-1>
                <I-32-2>-1.449197</I-32-2>
                <I-32-3>0.6685076</I-32-3>
                <I-32-4>3.25175</I-32-4>
                <I-32-5>1.874152</I-32-5>
                <I-32-6>0.62634</I-32-6>
                <I-32-7>-1.801555</I-32-7>
                <I-32-8>1.454619</I-32-8>
                <I-32-9>-0.2652126</I-32-9>
                <I-32-10>0.4685106</I-32-10>
                <I-32-11>2.646358</I-32-11>
                <I-32-12>-0.7716736</I-32-12>
                <I-32-13>0.2644366</I-32-13>
                <I-32-14>-0.6113185</I-32-14>
                <I-32-15>0.8296777</I-32-15>
                <I-32-16>-0.4036307</I-32-16>
                <I-32-17>0.1127278</I-32-17>
                <I-33-1>2.435591</I-33-1>
                <I-33-2>1.973984</I-33-2>
                <I-33-3>-0.7054727</I-33-3>
                <I-33-4>1.785421</I-33-4>
                <I-33-5>1.249902</I-33-5>
                <I-33-6>-0.272718</I-33-6>
                <I-33-7>-1.753687</I-33-7>
                <I-33-8>0.6610803</I-33-8>
                <I-33-9>-1.719149</I-33-9>
                <I-33-10>0.4751329</I-33-10>
                <I-33-11>0.9256598</I-33-11>
                <I-33-12>-0.9892747</I-33-12>
                <I-33-13>1.247802</I-33-13>
                <I-33-14>0.2242102</I-33-14>
                <I-33-15>-0.3202393</I-33-15>
                <I-33-16>-0.9011428</I-33-16>
                <I-33-17>0.7380603</I-33-17>
                <I-34-1>-0.9170013</I-34-1>
                <I-34-2>-4.736819</I-34-2>
                <I-34-3>-1.782112</I-34-3>
                <I-34-4>1.556087</I-34-4>
                <I-34-5>2.000704</I-34-5>
                <I-34-6>0.2023327</I-34-6>
                <I-34-7>2.993753</I-34-7>
                <I-34-8>1.408278</I-34-8>
                <I-34-9>-1.063252</I-34-9>
                <I-34-10>-1.130069</I-34-10>
                <I-34-11>1.818771</I-34-11>
                <I-34-12>-4.972711</I-34-12>
                <I-34-13>3.273504</I-34-13>
                <I-34-14>-1.91181</I-34-14>
                <I-34-15>0.8645226</I-34-15>
                <I-34-16>0.5171536</I-34-16>
                <I-34-17>0.8733768</I-34-17>
            </Weight>
        </Input>
        <Hidden>
            <HiddenNodeCount>17</HiddenNodeCount>
            <Weight>
                <H-1-1>0.5738437</H-1-1>
                <H-1-2>1.683914</H-1-2>
                <H-1-3>0.9636469</H-1-3>
                <H-1-4>0.4188843</H-1-4>
                <H-2-1>-8.473267E-05</H-2-1>
                <H-2-2>-1.278913</H-2-2>
                <H-2-3>-1.763688</H-2-3>
                <H-2-4>-0.771785</H-2-4>
                <H-3-1>-3.585867</H-3-1>
                <H-3-2>3.78833</H-3-2>
                <H-3-3>-0.6030751</H-3-3>
                <H-3-4>1.491375</H-3-4>
                <H-4-1>2.741493</H-4-1>
                <H-4-2>0.4042056</H-4-2>
                <H-4-3>0.7704506</H-4-3>
                <H-4-4>3.18538</H-4-4>
                <H-5-1>2.418506</H-5-1>
                <H-5-2>-5.404234</H-5-2>
                <H-5-3>-1.246374</H-5-3>
                <H-5-4>-1.97544</H-5-4>
                <H-6-1>-3.386719</H-6-1>
                <H-6-2>-1.124864</H-6-2>
                <H-6-3>2.152563</H-6-3>
                <H-6-4>-3.437196</H-6-4>
                <H-7-1>1.614285</H-7-1>
                <H-7-2>1.067038</H-7-2>
                <H-7-3>-0.423013</H-7-3>
                <H-7-4>-0.1070733</H-7-4>
                <H-8-1>-2.756629</H-8-1>
                <H-8-2>-0.7055297</H-8-2>
                <H-8-3>-0.8711506</H-8-3>
                <H-8-4>-4.105484</H-8-4>
                <H-9-1>4.150893</H-9-1>
                <H-9-2>-2.997195</H-9-2>
                <H-9-3>0.4998427</H-9-3>
                <H-9-4>-2.534752</H-9-4>
                <H-10-1>2.572462</H-10-1>
                <H-10-2>-0.2972738</H-10-2>
                <H-10-3>1.28506</H-10-3>
                <H-10-4>-0.3366602</H-10-4>
                <H-11-1>-0.1245427</H-11-1>
                <H-11-2>-1.033143</H-11-2>
                <H-11-3>0.63437</H-11-3>
                <H-11-4>0.3925374</H-11-4>
                <H-12-1>0.01046271</H-12-1>
                <H-12-2>0.7171413</H-12-2>
                <H-12-3>1.516983</H-12-3>
                <H-12-4>0.9858624</H-12-4>
                <H-13-1>-1.165915</H-13-1>
                <H-13-2>4.149887</H-13-2>
                <H-13-3>0.5343385</H-13-3>
                <H-13-4>1.251824</H-13-4>
                <H-14-1>-0.1392086</H-14-1>
                <H-14-2>-1.323058</H-14-2>
                <H-14-3>0.1052621</H-14-3>
                <H-14-4>0.9992414</H-14-4>
                <H-15-1>2.4399</H-15-1>
                <H-15-2>1.407774</H-15-2>
                <H-15-3>-2.396162</H-15-3>
                <H-15-4>3.329867</H-15-4>
                <H-16-1>-3.885811</H-16-1>
                <H-16-2>1.930048</H-16-2>
                <H-16-3>-0.4097265</H-16-3>
                <H-16-4>2.132971</H-16-4>
                <H-17-1>0.5651293</H-17-1>
                <H-17-2>-0.9763436</H-17-2>
                <H-17-3>1.197874</H-17-3>
                <H-17-4>-0.9185591</H-17-4>
            </Weight>
        </Hidden>
        <Output>
            <OutputNodeCount>4</OutputNodeCount>
            <Error>0.09911468</Error>
        </Output>
    </Layer>
</NeuralNetwork>