<?xml version="1.0" encoding="utf-8"?>
<NeuralNetwork>
    <Algorithm>BP</Algorithm>
    <Layer>
        <Input>
            <InputNodeCount>34</InputNodeCount>
            <Weight>
                <I-1-1>-0.1434853</I-1-1>
                <I-1-2>-0.5416084</I-1-2>
                <I-1-3>-0.1591121</I-1-3>
                <I-1-4>0.1551949</I-1-4>
                <I-1-5>0.7108815</I-1-5>
                <I-1-6>1.434422</I-1-6>
                <I-1-7>-1.632808</I-1-7>
                <I-1-8>0.3009441</I-1-8>
                <I-1-9>0.5509362</I-1-9>
                <I-1-10>0.06601406</I-1-10>
                <I-1-11>0.5197094</I-1-11>
                <I-1-12>0.09004997</I-1-12>
                <I-1-13>-0.5653809</I-1-13>
                <I-1-14>0.1702308</I-1-14>
                <I-1-15>0.8803514</I-1-15>
                <I-1-16>-0.201503</I-1-16>
                <I-1-17>1.120428</I-1-17>
                <I-2-1>-0.1240004</I-2-1>
                <I-2-2>1.190576</I-2-2>
                <I-2-3>0.4737422</I-2-3>
                <I-2-4>0.3554027</I-2-4>
                <I-2-5>0.9403926</I-2-5>
                <I-2-6>0.5259746</I-2-6>
                <I-2-7>0.2413729</I-2-7>
                <I-2-8>0.03626123</I-2-8>
                <I-2-9>0.1974278</I-2-9>
                <I-2-10>0.4283844</I-2-10>
                <I-2-11>0.5924963</I-2-11>
                <I-2-12>1.068508</I-2-12>
                <I-2-13>2.11454</I-2-13>
                <I-2-14>0.409662</I-2-14>
                <I-2-15>-0.0275617</I-2-15>
                <I-2-16>1.111607</I-2-16>
                <I-2-17>0.09929642</I-2-17>
                <I-3-1>-2.143231</I-3-1>
                <I-3-2>0.1486915</I-3-2>
                <I-3-3>-1.039535</I-3-3>
                <I-3-4>0.07641336</I-3-4>
                <I-3-5>1.899173</I-3-5>
                <I-3-6>2.20343</I-3-6>
                <I-3-7>-1.574662</I-3-7>
                <I-3-8>-1.142299</I-3-8>
                <I-3-9>0.05918504</I-3-9>
                <I-3-10>0.7376536</I-3-10>
                <I-3-11>0.8624989</I-3-11>
                <I-3-12>0.006073959</I-3-12>
                <I-3-13>0.1469339</I-3-13>
                <I-3-14>-0.04229331</I-3-14>
                <I-3-15>-0.1890553</I-3-15>
                <I-3-16>1.219922</I-3-16>
                <I-3-17>0.3421756</I-3-17>
                <I-4-1>1.920036</I-4-1>
                <I-4-2>0.8869956</I-4-2>
                <I-4-3>0.6873089</I-4-3>
                <I-4-4>0.8039886</I-4-4>
                <I-4-5>-1.153703</I-4-5>
                <I-4-6>1.648147</I-4-6>
                <I-4-7>2.396829</I-4-7>
                <I-4-8>2.603818</I-4-8>
                <I-4-9>1.206162</I-4-9>
                <I-4-10>1.580309</I-4-10>
                <I-4-11>1.392945</I-4-11>
                <I-4-12>1.312746</I-4-12>
                <I-4-13>0.3660964</I-4-13>
                <I-4-14>-0.1745292</I-4-14>
                <I-4-15>0.9084801</I-4-15>
                <I-4-16>1.014977</I-4-16>
                <I-4-17>2.124664</I-4-17>
                <I-5-1>0.7888536</I-5-1>
                <I-5-2>-0.4386283</I-5-2>
                <I-5-3>0.4709165</I-5-3>
                <I-5-4>0.4514294</I-5-4>
                <I-5-5>-0.03604604</I-5-5>
                <I-5-6>-0.2244608</I-5-6>
                <I-5-7>0.9263312</I-5-7>
                <I-5-8>-2.488603</I-5-8>
                <I-5-9>-0.3777126</I-5-9>
                <I-5-10>1.741272</I-5-10>
                <I-5-11>0.4740342</I-5-11>
                <I-5-12>-0.02252826</I-5-12>
                <I-5-13>1.890952</I-5-13>
                <I-5-14>0.4681439</I-5-14>
                <I-5-15>-0.1364435</I-5-15>
                <I-5-16>0.7242805</I-5-16>
                <I-5-17>0.5962558</I-5-17>
                <I-6-1>0.5790654</I-6-1>
                <I-6-2>-0.03529105</I-6-2>
                <I-6-3>-0.5317146</I-6-3>
                <I-6-4>0.3785371</I-6-4>
                <I-6-5>0.5883856</I-6-5>
                <I-6-6>0.5777779</I-6-6>
                <I-6-7>1.283049</I-6-7>
                <I-6-8>-0.3076357</I-6-8>
                <I-6-9>0.1999736</I-6-9>
                <I-6-10>1.465132</I-6-10>
                <I-6-11>0.600913</I-6-11>
                <I-6-12>-0.03664166</I-6-12>
                <I-6-13>1.371281</I-6-13>
                <I-6-14>0.1500051</I-6-14>
                <I-6-15>0.2764262</I-6-15>
                <I-6-16>-0.7813213</I-6-16>
                <I-6-17>0.08413325</I-6-17>
                <I-7-1>0.01747388</I-7-1>
                <I-7-2>1.062091</I-7-2>
                <I-7-3>0.1220634</I-7-3>
                <I-7-4>0.1425192</I-7-4>
                <I-7-5>-0.8313044</I-7-5>
                <I-7-6>1.098817</I-7-6>
                <I-7-7>-0.1647606</I-7-7>
                <I-7-8>-1.44933</I-7-8>
                <I-7-9>0.0338422</I-7-9>
                <I-7-10>0.2778346</I-7-10>
                <I-7-11>0.6543708</I-7-11>
                <I-7-12>0.3587008</I-7-12>
                <I-7-13>1.901031</I-7-13>
                <I-7-14>0.1033966</I-7-14>
                <I-7-15>-0.1084029</I-7-15>
                <I-7-16>-0.06691512</I-7-16>
                <I-7-17>-1.083194</I-7-17>
                <I-8-1>1.44502</I-8-1>
                <I-8-2>-2.110195</I-8-2>
                <I-8-3>1.388156</I-8-3>
                <I-8-4>-0.3096633</I-8-4>
                <I-8-5>-0.1608443</I-8-5>
                <I-8-6>-0.1241633</I-8-6>
                <I-8-7>0.130239</I-8-7>
                <I-8-8>1.014425</I-8-8>
                <I-8-9>0.4779748</I-8-9>
                <I-8-10>1.827832</I-8-10>
                <I-8-11>-0.3554071</I-8-11>
                <I-8-12>0.6477889</I-8-12>
                <I-8-13>1.183745</I-8-13>
                <I-8-14>-0.4961502</I-8-14>
                <I-8-15>0.3976259</I-8-15>
                <I-8-16>-1.398474</I-8-16>
                <I-8-17>1.332026</I-8-17>
                <I-9-1>0.9220824</I-9-1>
                <I-9-2>0.4635378</I-9-2>
                <I-9-3>-0.08265442</I-9-3>
                <I-9-4>1.531198</I-9-4>
                <I-9-5>0.7841493</I-9-5>
                <I-9-6>1.009297</I-9-6>
                <I-9-7>-0.6086462</I-9-7>
                <I-9-8>0.1107339</I-9-8>
                <I-9-9>0.2834951</I-9-9>
                <I-9-10>-1.066748</I-9-10>
                <I-9-11>0.01752793</I-9-11>
                <I-9-12>-1.03893</I-9-12>
                <I-9-13>-0.2429838</I-9-13>
                <I-9-14>0.8738698</I-9-14>
                <I-9-15>0.2588459</I-9-15>
                <I-9-16>1.936121</I-9-16>
                <I-9-17>1.097928</I-9-17>
                <I-10-1>0.642164</I-10-1>
                <I-10-2>0.04158035</I-10-2>
                <I-10-3>-0.8910934</I-10-3>
                <I-10-4>-0.0393744</I-10-4>
                <I-10-5>-0.3674313</I-10-5>
                <I-10-6>1.655187</I-10-6>
                <I-10-7>0.2868063</I-10-7>
                <I-10-8>0.7921105</I-10-8>
                <I-10-9>0.02713132</I-10-9>
                <I-10-10>-1.900284</I-10-10>
                <I-10-11>-0.1275422</I-10-11>
                <I-10-12>-0.4607394</I-10-12>
                <I-10-13>0.6999938</I-10-13>
                <I-10-14>-0.3530726</I-10-14>
                <I-10-15>0.268809</I-10-15>
                <I-10-16>0.7369441</I-10-16>
                <I-10-17>1.362093</I-10-17>
                <I-11-1>0.4654944</I-11-1>
                <I-11-2>0.05384931</I-11-2>
                <I-11-3>-0.1011603</I-11-3>
                <I-11-4>-0.1095345</I-11-4>
                <I-11-5>-0.5014546</I-11-5>
                <I-11-6>1.269747</I-11-6>
                <I-11-7>0.6645916</I-11-7>
                <I-11-8>1.410449</I-11-8>
                <I-11-9>-0.1407854</I-11-9>
                <I-11-10>-1.675482</I-11-10>
                <I-11-11>0.02847728</I-11-11>
                <I-11-12>-0.7175984</I-11-12>
                <I-11-13>1.22544</I-11-13>
                <I-11-14>-0.05294514</I-11-14>
                <I-11-15>0.2692566</I-11-15>
                <I-11-16>0.95186</I-11-16>
                <I-11-17>-0.0556943</I-11-17>
                <I-12-1>0.2887799</I-12-1>
                <I-12-2>-0.7034891</I-12-2>
                <I-12-3>-0.724383</I-12-3>
                <I-12-4>-0.07538164</I-12-4>
                <I-12-5>-0.4634505</I-12-5>
                <I-12-6>1.603642</I-12-6>
                <I-12-7>0.758516</I-12-7>
                <I-12-8>1.125403</I-12-8>
                <I-12-9>-0.2318527</I-12-9>
                <I-12-10>-1.100928</I-12-10>
                <I-12-11>0.2001185</I-12-11>
                <I-12-12>-0.1823459</I-12-12>
                <I-12-13>0.9540004</I-12-13>
                <I-12-14>-0.3549587</I-12-14>
                <I-12-15>0.02433708</I-12-15>
                <I-12-16>-0.07367194</I-12-16>
                <I-12-17>-0.8248257</I-12-17>
                <I-13-1>-1.035506</I-13-1>
                <I-13-2>-0.5381547</I-13-2>
                <I-13-3>-0.8404447</I-13-3>
                <I-13-4>-0.17092</I-13-4>
                <I-13-5>-1.273993</I-13-5>
                <I-13-6>0.04696136</I-13-6>
                <I-13-7>-0.471024</I-13-7>
                <I-13-8>-1.332389</I-13-8>
                <I-13-9>-0.2396827</I-13-9>
                <I-13-10>-1.154813</I-13-10>
                <I-13-11>-0.6634383</I-13-11>
                <I-13-12>-0.2728148</I-13-12>
                <I-13-13>0.2261379</I-13-13>
                <I-13-14>-1.056315</I-13-14>
                <I-13-15>-0.1388414</I-13-15>
                <I-13-16>-1.397324</I-13-16>
                <I-13-17>0.4536436</I-13-17>
                <I-14-1>0.220031</I-14-1>
                <I-14-2>-0.2275735</I-14-2>
                <I-14-3>-0.4073004</I-14-3>
                <I-14-4>0.2309818</I-14-4>
                <I-14-5>-1.62588</I-14-5>
                <I-14-6>-0.08307964</I-14-6>
                <I-14-7>0.5048136</I-14-7>
                <I-14-8>-0.09066559</I-14-8>
                <I-14-9>-0.06585816</I-14-9>
                <I-14-10>-0.02811551</I-14-10>
                <I-14-11>-0.4126039</I-14-11>
                <I-14-12>0.01082333</I-14-12>
                <I-14-13>0.1866768</I-14-13>
                <I-14-14>-0.1741488</I-14-14>
                <I-14-15>-0.1203504</I-14-15>
                <I-14-16>0.4762608</I-14-16>
                <I-14-17>0.2906437</I-14-17>
                <I-15-1>0.5148499</I-15-1>
                <I-15-2>0.1746085</I-15-2>
                <I-15-3>0.1852009</I-15-3>
                <I-15-4>0.2936685</I-15-4>
                <I-15-5>-1.620288</I-15-5>
                <I-15-6>-1.714612</I-15-6>
                <I-15-7>0.4808816</I-15-7>
                <I-15-8>0.9857117</I-15-8>
                <I-15-9>-0.6920416</I-15-9>
                <I-15-10>0.7599915</I-15-10>
                <I-15-11>-0.7442922</I-15-11>
                <I-15-12>-0.8267175</I-15-12>
                <I-15-13>-2.403412</I-15-13>
                <I-15-14>-0.2185003</I-15-14>
                <I-15-15>-0.6214544</I-15-15>
                <I-15-16>-1.214819</I-15-16>
                <I-15-17>0.9686738</I-15-17>
                <I-16-1>1.294184</I-16-1>
                <I-16-2>0.6816732</I-16-2>
                <I-16-3>-0.7874911</I-16-3>
                <I-16-4>0.1345587</I-16-4>
                <I-16-5>-1.138031</I-16-5>
                <I-16-6>0.8101146</I-16-6>
                <I-16-7>-0.09792671</I-16-7>
                <I-16-8>0.4882019</I-16-8>
                <I-16-9>-0.7454332</I-16-9>
                <I-16-10>1.657161</I-16-10>
                <I-16-11>-0.1999802</I-16-11>
                <I-16-12>0.456964</I-16-12>
                <I-16-13>-1.114518</I-16-13>
                <I-16-14>-0.003077395</I-16-14>
                <I-16-15>-0.8931255</I-16-15>
                <I-16-16>-0.7186177</I-16-16>
                <I-16-17>0.1817497</I-16-17>
                <I-17-1>1.784572</I-17-1>
                <I-17-2>1.701741</I-17-2>
                <I-17-3>-0.09922503</I-17-3>
                <I-17-4>-0.2169652</I-17-4>
                <I-17-5>0.2124788</I-17-5>
                <I-17-6>1.85893</I-17-6>
                <I-17-7>0.5512047</I-17-7>
                <I-17-8>2.119307</I-17-8>
                <I-17-9>-0.2805693</I-17-9>
                <I-17-10>0.04140376</I-17-10>
                <I-17-11>0.4186434</I-17-11>
                <I-17-12>0.1136986</I-17-12>
                <I-17-13>-0.490676</I-17-13>
                <I-17-14>-0.05094832</I-17-14>
                <I-17-15>-0.6371384</I-17-15>
                <I-17-16>-1.172936</I-17-16>
                <I-17-17>0.8958457</I-17-17>
                <I-18-1>2.011086</I-18-1>
                <I-18-2>0.5690407</I-18-2>
                <I-18-3>0.09464561</I-18-3>
                <I-18-4>-0.1120296</I-18-4>
                <I-18-5>2.846072</I-18-5>
                <I-18-6>0.3555994</I-18-6>
                <I-18-7>1.54518</I-18-7>
                <I-18-8>3.869536</I-18-8>
                <I-18-9>-0.02314343</I-18-9>
                <I-18-10>1.835592</I-18-10>
                <I-18-11>0.5731491</I-18-11>
                <I-18-12>-0.2036511</I-18-12>
                <I-18-13>0.02125149</I-18-13>
                <I-18-14>0.4348286</I-18-14>
                <I-18-15>-0.357655</I-18-15>
                <I-18-16>0.3778775</I-18-16>
                <I-18-17>-1.144471</I-18-17>
                <I-19-1>-0.1462457</I-19-1>
                <I-19-2>1.403824</I-19-2>
                <I-19-3>0.1793095</I-19-3>
                <I-19-4>0.02997859</I-19-4>
                <I-19-5>2.001044</I-19-5>
                <I-19-6>0.9597237</I-19-6>
                <I-19-7>1.322495</I-19-7>
                <I-19-8>0.8839034</I-19-8>
                <I-19-9>0.05513365</I-19-9>
                <I-19-10>1.180846</I-19-10>
                <I-19-11>0.5825805</I-19-11>
                <I-19-12>-0.7499528</I-19-12>
                <I-19-13>0.5891072</I-19-13>
                <I-19-14>0.1162258</I-19-14>
                <I-19-15>-0.09936708</I-19-15>
                <I-19-16>-0.1926253</I-19-16>
                <I-19-17>-1.629183</I-19-17>
                <I-20-1>0.07510496</I-20-1>
                <I-20-2>0.1866672</I-20-2>
                <I-20-3>-0.2263142</I-20-3>
                <I-20-4>0.1585485</I-20-4>
                <I-20-5>0.4472224</I-20-5>
                <I-20-6>0.6461121</I-20-6>
                <I-20-7>0.3183461</I-20-7>
                <I-20-8>1.310452</I-20-8>
                <I-20-9>0.5488335</I-20-9>
                <I-20-10>0.1819223</I-20-10>
                <I-20-11>0.178452</I-20-11>
                <I-20-12>0.2579401</I-20-12>
                <I-20-13>-0.16482</I-20-13>
                <I-20-14>0.04592583</I-20-14>
                <I-20-15>0.366417</I-20-15>
                <I-20-16>-0.6777822</I-20-16>
                <I-20-17>-0.146049</I-20-17>
                <I-21-1>-0.2356865</I-21-1>
                <I-21-2>0.8353636</I-21-2>
                <I-21-3>0.1205781</I-21-3>
                <I-21-4>0.05054612</I-21-4>
                <I-21-5>-0.03762837</I-21-5>
                <I-21-6>0.7116473</I-21-6>
                <I-21-7>-0.3255612</I-21-7>
                <I-21-8>0.6246203</I-21-8>
                <I-21-9>0.430786</I-21-9>
                <I-21-10>-0.4117281</I-21-10>
                <I-21-11>0.0751687</I-21-11>
                <I-21-12>0.4556186</I-21-12>
                <I-21-13>0.1100137</I-21-13>
                <I-21-14>0.1176259</I-21-14>
                <I-21-15>0.2740158</I-21-15>
                <I-21-16>-0.3556072</I-21-16>
                <I-21-17>-0.6297572</I-21-17>
                <I-22-1>0.4480696</I-22-1>
                <I-22-2>-0.7557545</I-22-2>
                <I-22-3>0.6236286</I-22-3>
                <I-22-4>-0.2555509</I-22-4>
                <I-22-5>0.1975952</I-22-5>
                <I-22-6>0.3851413</I-22-6>
                <I-22-7>-0.2830659</I-22-7>
                <I-22-8>1.846538</I-22-8>
                <I-22-9>0.6178665</I-22-9>
                <I-22-10>0.1233308</I-22-10>
                <I-22-11>-0.4447132</I-22-11>
                <I-22-12>0.6101391</I-22-12>
                <I-22-13>-0.2135765</I-22-13>
                <I-22-14>-0.3171464</I-22-14>
                <I-22-15>0.5820539</I-22-15>
                <I-22-16>-0.8063898</I-22-16>
                <I-22-17>0.4678521</I-22-17>
                <I-23-1>0.1716095</I-23-1>
                <I-23-2>0.5610708</I-23-2>
                <I-23-3>0.04322002</I-23-3>
                <I-23-4>0.5198833</I-23-4>
                <I-23-5>0.5951092</I-23-5>
                <I-23-6>0.8718863</I-23-6>
                <I-23-7>-0.6224988</I-23-7>
                <I-23-8>1.354617</I-23-8>
                <I-23-9>0.3556077</I-23-9>
                <I-23-10>-1.378994</I-23-10>
                <I-23-11>-0.02325805</I-23-11>
                <I-23-12>-0.4481808</I-23-12>
                <I-23-13>-0.9769717</I-23-13>
                <I-23-14>0.2578638</I-23-14>
                <I-23-15>0.3376412</I-23-15>
                <I-23-16>0.7859589</I-23-16>
                <I-23-17>0.4558339</I-23-17>
                <I-24-1>-0.03667132</I-24-1>
                <I-24-2>0.0422552</I-24-2>
                <I-24-3>0.7699147</I-24-3>
                <I-24-4>0.2698328</I-24-4>
                <I-24-5>0.215978</I-24-5>
                <I-24-6>0.004569466</I-24-6>
                <I-24-7>0.5377849</I-24-7>
                <I-24-8>0.9183421</I-24-8>
                <I-24-9>-0.247921</I-24-9>
                <I-24-10>0.294826</I-24-10>
                <I-24-11>0.3660255</I-24-11>
                <I-24-12>0.08314262</I-24-12>
                <I-24-13>0.7154759</I-24-13>
                <I-24-14>0.4701263</I-24-14>
                <I-24-15>0.0104382</I-24-15>
                <I-24-16>0.4248863</I-24-16>
                <I-24-17>-1.197884</I-24-17>
                <I-25-1>-0.3233935</I-25-1>
                <I-25-2>-0.9250776</I-25-2>
                <I-25-3>0.4167009</I-25-3>
                <I-25-4>0.1439871</I-25-4>
                <I-25-5>0.223993</I-25-5>
                <I-25-6>-0.1015281</I-25-6>
                <I-25-7>0.4817126</I-25-7>
                <I-25-8>0.4332896</I-25-8>
                <I-25-9>-0.1789851</I-25-9>
                <I-25-10>1.049362</I-25-10>
                <I-25-11>0.1876578</I-25-11>
                <I-25-12>0.4683965</I-25-12>
                <I-25-13>0.2840153</I-25-13>
                <I-25-14>0.1181153</I-25-14>
                <I-25-15>0.05552275</I-25-15>
                <I-25-16>-0.8606366</I-25-16>
                <I-25-17>-1.716959</I-25-17>
                <I-26-1>-1.667646</I-26-1>
                <I-26-2>-0.5297412</I-26-2>
                <I-26-3>0.1006485</I-26-3>
                <I-26-4>0.09845445</I-26-4>
                <I-26-5>-0.6765493</I-26-5>
                <I-26-6>-1.458222</I-26-6>
                <I-26-7>-0.4978303</I-26-7>
                <I-26-8>-1.76453</I-26-8>
                <I-26-9>-0.1568132</I-26-9>
                <I-26-10>1.085517</I-26-10>
                <I-26-11>-0.465903</I-26-11>
                <I-26-12>0.4779319</I-26-12>
                <I-26-13>-0.2838504</I-26-13>
                <I-26-14>-0.353233</I-26-14>
                <I-26-15>-0.1476503</I-26-15>
                <I-26-16>-1.874259</I-26-16>
                <I-26-17>-0.6384192</I-26-17>
                <I-27-1>-0.2721271</I-27-1>
                <I-27-2>-0.3791699</I-27-2>
                <I-27-3>0.6437919</I-27-3>
                <I-27-4>0.5503553</I-27-4>
                <I-27-5>-0.9685149</I-27-5>
                <I-27-6>-1.298243</I-27-6>
                <I-27-7>0.1180022</I-27-7>
                <I-27-8>-0.6127826</I-27-8>
                <I-27-9>-0.2429882</I-27-9>
                <I-27-10>2.122253</I-27-10>
                <I-27-11>-0.06506798</I-27-11>
                <I-27-12>0.7715638</I-27-12>
                <I-27-13>-0.2633246</I-27-13>
                <I-27-14>0.3189219</I-27-14>
                <I-27-15>-0.1991685</I-27-15>
                <I-27-16>-0.0006883105</I-27-16>
                <I-27-17>-0.9614503</I-27-17>
                <I-28-1>0.5996808</I-28-1>
                <I-28-2>0.4335219</I-28-2>
                <I-28-3>-0.3863381</I-28-3>
                <I-28-4>0.1804478</I-28-4>
                <I-28-5>0.4861161</I-28-5>
                <I-28-6>1.347377</I-28-6>
                <I-28-7>-0.2293967</I-28-7>
                <I-28-8>-0.07876679</I-28-8>
                <I-28-9>0.03830277</I-28-9>
                <I-28-10>0.6235774</I-28-10>
                <I-28-11>0.3171678</I-28-11>
                <I-28-12>0.7168289</I-28-12>
                <I-28-13>0.6344846</I-28-13>
                <I-28-14>0.2177111</I-28-14>
                <I-28-15>0.109175</I-28-15>
                <I-28-16>0.4630983</I-28-16>
                <I-28-17>-0.2384745</I-28-17>
                <I-29-1>0.6948822</I-29-1>
                <I-29-2>0.808567</I-29-2>
                <I-29-3>-0.1672111</I-29-3>
                <I-29-4>-0.03031672</I-29-4>
                <I-29-5>1.276332</I-29-5>
                <I-29-6>1.936757</I-29-6>
                <I-29-7>0.2701652</I-29-7>
                <I-29-8>0.8918523</I-29-8>
                <I-29-9>0.1707347</I-29-9>
                <I-29-10>-0.0392851</I-29-10>
                <I-29-11>0.6364515</I-29-11>
                <I-29-12>0.5502122</I-29-12>
                <I-29-13>1.061447</I-29-13>
                <I-29-14>0.2287746</I-29-14>
                <I-29-15>0.1921614</I-29-15>
                <I-29-16>0.02597984</I-29-16>
                <I-29-17>0.04359056</I-29-17>
                <I-30-1>0.7231945</I-30-1>
                <I-30-2>0.4672167</I-30-2>
                <I-30-3>0.1447256</I-30-3>
                <I-30-4>-0.107853</I-30-4>
                <I-30-5>2.438127</I-30-5>
                <I-30-6>1.090167</I-30-6>
                <I-30-7>0.8571466</I-30-7>
                <I-30-8>1.827105</I-30-8>
                <I-30-9>0.3444484</I-30-9>
                <I-30-10>0.7178199</I-30-10>
                <I-30-11>0.7987189</I-30-11>
                <I-30-12>0.3265277</I-30-12>
                <I-30-13>1.142391</I-30-13>
                <I-30-14>0.2766752</I-30-14>
                <I-30-15>0.1869064</I-30-15>
                <I-30-16>1.00632</I-30-16>
                <I-30-17>-0.9265854</I-30-17>
                <I-31-1>-0.1405487</I-31-1>
                <I-31-2>0.7146096</I-31-2>
                <I-31-3>0.1320556</I-31-3>
                <I-31-4>0.1181533</I-31-4>
                <I-31-5>2.085766</I-31-5>
                <I-31-6>1.607171</I-31-6>
                <I-31-7>0.6808202</I-31-7>
                <I-31-8>0.3140898</I-31-8>
                <I-31-9>0.4585797</I-31-9>
                <I-31-10>0.5104012</I-31-10>
                <I-31-11>0.8384214</I-31-11>
                <I-31-12>0.0333743</I-31-12>
                <I-31-13>1.601284</I-31-13>
                <I-31-14>0.2573653</I-31-14>
                <I-31-15>0.6010445</I-31-15>
                <I-31-16>0.5811208</I-31-16>
                <I-31-17>-1.144026</I-31-17>
                <I-32-1>-0.371602</I-32-1>
                <I-32-2>1.347391</I-32-2>
                <I-32-3>0.8537831</I-32-3>
                <I-32-4>-0.2260196</I-32-4>
                <I-32-5>-0.9396933</I-32-5>
                <I-32-6>0.761078</I-32-6>
                <I-32-7>-1.487848</I-32-7>
                <I-32-8>-0.891628</I-32-8>
                <I-32-9>0.2438602</I-32-9>
                <I-32-10>-1.067283</I-32-10>
                <I-32-11>-0.01656161</I-32-11>
                <I-32-12>0.5153717</I-32-12>
                <I-32-13>0.5096816</I-32-13>
                <I-32-14>0.1633999</I-32-14>
                <I-32-15>-0.4248317</I-32-15>
                <I-32-16>0.9343842</I-32-16>
                <I-32-17>-0.8874112</I-32-17>
                <I-33-1>-0.3267049</I-33-1>
                <I-33-2>-1.037322</I-33-2>
                <I-33-3>-0.3632198</I-33-3>
                <I-33-4>0.1141506</I-33-4>
                <I-33-5>0.03800946</I-33-5>
                <I-33-6>0.3439025</I-33-6>
                <I-33-7>0.2739339</I-33-7>
                <I-33-8>-0.4050228</I-33-8>
                <I-33-9>0.2189313</I-33-9>
                <I-33-10>0.8645216</I-33-10>
                <I-33-11>-0.07835904</I-33-11>
                <I-33-12>0.6452444</I-33-12>
                <I-33-13>-0.2014516</I-33-13>
                <I-33-14>-0.05201307</I-33-14>
                <I-33-15>0.1750909</I-33-15>
                <I-33-16>-1.005524</I-33-16>
                <I-33-17>-0.3991177</I-33-17>
                <I-34-1>0.5004363</I-34-1>
                <I-34-2>0.9800487</I-34-2>
                <I-34-3>0.7883207</I-34-3>
                <I-34-4>-0.1215334</I-34-4>
                <I-34-5>1.780537</I-34-5>
                <I-34-6>1.248773</I-34-6>
                <I-34-7>0.8091171</I-34-7>
                <I-34-8>1.851262</I-34-8>
                <I-34-9>0.3648603</I-34-9>
                <I-34-10>-1.405713</I-34-10>
                <I-34-11>0.7885813</I-34-11>
                <I-34-12>-0.2532698</I-34-12>
                <I-34-13>0.7138976</I-34-13>
                <I-34-14>0.08212494</I-34-14>
                <I-34-15>0.325984</I-34-15>
                <I-34-16>-0.3742568</I-34-16>
                <I-34-17>0.7441372</I-34-17>
            </Weight>
        </Input>
        <Hidden>
            <HiddenNodeCount>17</HiddenNodeCount>
            <Weight>
                <H-1-1>-0.004066172</H-1-1>
                <H-1-2>0.7615272</H-1-2>
                <H-1-3>2.849827</H-1-3>
                <H-1-4>1.310122</H-1-4>
                <H-2-1>0.05045716</H-2-1>
                <H-2-2>0.1959846</H-2-2>
                <H-2-3>-1.192239</H-2-3>
                <H-2-4>3.775847</H-2-4>
                <H-3-1>-1.225781</H-3-1>
                <H-3-2>1.018595</H-3-2>
                <H-3-3>-0.2673308</H-3-3>
                <H-3-4>0.1587227</H-3-4>
                <H-4-1>1.927314</H-4-1>
                <H-4-2>0.9710252</H-4-2>
                <H-4-3>0.08465102</H-4-3>
                <H-4-4>0.6003217</H-4-4>
                <H-5-1>0.1311657</H-5-1>
                <H-5-2>1.775407</H-5-2>
                <H-5-3>0.3823742</H-5-3>
                <H-5-4>-2.430233</H-5-4>
                <H-6-1>0.3185541</H-6-1>
                <H-6-2>-0.2180338</H-6-2>
                <H-6-3>-3.870099</H-6-3>
                <H-6-4>-1.416656</H-6-4>
                <H-7-1>0.1233957</H-7-1>
                <H-7-2>2.341687</H-7-2>
                <H-7-3>-0.2163967</H-7-3>
                <H-7-4>0.02909469</H-7-4>
                <H-8-1>-0.2205015</H-8-1>
                <H-8-2>-1.578257</H-8-2>
                <H-8-3>2.097184</H-8-3>
                <H-8-4>-2.207177</H-8-4>
                <H-9-1>-0.205906</H-9-1>
                <H-9-2>0.05543574</H-9-2>
                <H-9-3>0.9999187</H-9-3>
                <H-9-4>-0.2610792</H-9-4>
                <H-10-1>-0.3669389</H-10-1>
                <H-10-2>0.2229365</H-10-2>
                <H-10-3>-0.7582994</H-10-3>
                <H-10-4>-2.311042</H-10-4>
                <H-11-1>0.3312484</H-11-1>
                <H-11-2>-1.930086</H-11-2>
                <H-11-3>0.2918803</H-11-3>
                <H-11-4>0.4109007</H-11-4>
                <H-12-1>-0.6796592</H-12-1>
                <H-12-2>-0.5290599</H-12-2>
                <H-12-3>0.9120718</H-12-3>
                <H-12-4>1.966252</H-12-4>
                <H-13-1>-0.5838712</H-13-1>
                <H-13-2>0.05656476</H-13-2>
                <H-13-3>2.548537</H-13-3>
                <H-13-4>2.101912</H-13-4>
                <H-14-1>1.032819</H-14-1>
                <H-14-2>-0.3953111</H-14-2>
                <H-14-3>0.8803508</H-14-3>
                <H-14-4>1.588834</H-14-4>
                <H-15-1>0.7809267</H-15-1>
                <H-15-2>-0.05801477</H-15-2>
                <H-15-3>1.355361</H-15-3>
                <H-15-4>-0.1469194</H-15-4>
                <H-16-1>-0.6746597</H-16-1>
                <H-16-2>0.5760527</H-16-2>
                <H-16-3>-3.782934</H-16-3>
                <H-16-4>1.380498</H-16-4>
                <H-17-1>-0.2579955</H-17-1>
                <H-17-2>-0.8355288</H-17-2>
                <H-17-3>-0.1283412</H-17-3>
                <H-17-4>-3.167047</H-17-4>
            </Weight>
        </Hidden>
        <Output>
            <OutputNodeCount>4</OutputNodeCount>
            <Error>0.2019833</Error>
        </Output>
    </Layer>
</NeuralNetwork>