<?xml version="1.0" encoding="utf-8"?>
<NeuralNetwork>
    <Algorithm>BP</Algorithm>
    <Layer>
        <Input>
            <InputNodeCount>34</InputNodeCount>
            <Weight>
                <I-1-1>0.7334191</I-1-1>
                <I-1-2>-0.1207914</I-1-2>
                <I-1-3>-0.2024168</I-1-3>
                <I-1-4>-0.7696726</I-1-4>
                <I-1-5>-0.2285777</I-1-5>
                <I-1-6>-0.3882242</I-1-6>
                <I-1-7>0.3572936</I-1-7>
                <I-1-8>1.376209</I-1-8>
                <I-1-9>0.8047004</I-1-9>
                <I-1-10>-0.3644025</I-1-10>
                <I-1-11>-0.2621552</I-1-11>
                <I-1-12>0.07286869</I-1-12>
                <I-1-13>0.7800645</I-1-13>
                <I-1-14>0.4167173</I-1-14>
                <I-1-15>1.040496</I-1-15>
                <I-1-16>0.02899763</I-1-16>
                <I-1-17>1.99791</I-1-17>
                <I-2-1>0.8572932</I-2-1>
                <I-2-2>2.430332</I-2-2>
                <I-2-3>0.4664077</I-2-3>
                <I-2-4>-0.08417046</I-2-4>
                <I-2-5>0.489746</I-2-5>
                <I-2-6>0.6073985</I-2-6>
                <I-2-7>-0.02831168</I-2-7>
                <I-2-8>0.477443</I-2-8>
                <I-2-9>0.5917077</I-2-9>
                <I-2-10>1.023855</I-2-10>
                <I-2-11>-0.1562043</I-2-11>
                <I-2-12>0.4039457</I-2-12>
                <I-2-13>0.5725924</I-2-13>
                <I-2-14>0.2530035</I-2-14>
                <I-2-15>2.004549</I-2-15>
                <I-2-16>-0.8768601</I-2-16>
                <I-2-17>0.8871502</I-2-17>
                <I-3-1>-0.0266231</I-3-1>
                <I-3-2>1.2933</I-3-2>
                <I-3-3>-1.234444</I-3-3>
                <I-3-4>-2.50097</I-3-4>
                <I-3-5>-0.229144</I-3-5>
                <I-3-6>-0.3101641</I-3-6>
                <I-3-7>0.2858805</I-3-7>
                <I-3-8>2.136618</I-3-8>
                <I-3-9>0.1251552</I-3-9>
                <I-3-10>-0.3940769</I-3-10>
                <I-3-11>0.8572162</I-3-11>
                <I-3-12>-0.03681077</I-3-12>
                <I-3-13>0.6428587</I-3-13>
                <I-3-14>0.8253062</I-3-14>
                <I-3-15>-2.354915</I-3-15>
                <I-3-16>-0.008726235</I-3-16>
                <I-3-17>1.797082</I-3-17>
                <I-4-1>3.848831</I-4-1>
                <I-4-2>1.199795</I-4-2>
                <I-4-3>1.607847</I-4-3>
                <I-4-4>1.100399</I-4-4>
                <I-4-5>2.151773</I-4-5>
                <I-4-6>1.427937</I-4-6>
                <I-4-7>1.332609</I-4-7>
                <I-4-8>1.486767</I-4-8>
                <I-4-9>0.1060252</I-4-9>
                <I-4-10>0.7885229</I-4-10>
                <I-4-11>0.6683744</I-4-11>
                <I-4-12>-0.02356445</I-4-12>
                <I-4-13>1.561207</I-4-13>
                <I-4-14>0.3425643</I-4-14>
                <I-4-15>1.650694</I-4-15>
                <I-4-16>0.4530486</I-4-16>
                <I-4-17>2.740186</I-4-17>
                <I-5-1>-0.2119449</I-5-1>
                <I-5-2>2.207401</I-5-2>
                <I-5-3>-0.4253958</I-5-3>
                <I-5-4>0.3117327</I-5-4>
                <I-5-5>0.2928601</I-5-5>
                <I-5-6>0.01763056</I-5-6>
                <I-5-7>0.02094725</I-5-7>
                <I-5-8>-0.6655656</I-5-8>
                <I-5-9>-0.5994881</I-5-9>
                <I-5-10>0.5844277</I-5-10>
                <I-5-11>1.227136</I-5-11>
                <I-5-12>-0.8237016</I-5-12>
                <I-5-13>-0.4088688</I-5-13>
                <I-5-14>-0.3946266</I-5-14>
                <I-5-15>-0.8588936</I-5-15>
                <I-5-16>-0.5680646</I-5-16>
                <I-5-17>0.7101646</I-5-17>
                <I-6-1>-0.6113104</I-6-1>
                <I-6-2>1.483041</I-6-2>
                <I-6-3>1.029948</I-6-3>
                <I-6-4>-0.4968097</I-6-4>
                <I-6-5>0.2337574</I-6-5>
                <I-6-6>0.8062703</I-6-6>
                <I-6-7>-0.09213236</I-6-7>
                <I-6-8>0.2234182</I-6-8>
                <I-6-9>-0.426177</I-6-9>
                <I-6-10>0.3858649</I-6-10>
                <I-6-11>1.713763</I-6-11>
                <I-6-12>-1.120098</I-6-12>
                <I-6-13>0.11593</I-6-13>
                <I-6-14>-0.05614829</I-6-14>
                <I-6-15>0.936928</I-6-15>
                <I-6-16>0.6557843</I-6-16>
                <I-6-17>0.6299487</I-6-17>
                <I-7-1>-1.035148</I-7-1>
                <I-7-2>1.585403</I-7-2>
                <I-7-3>-0.4915247</I-7-3>
                <I-7-4>-0.8878499</I-7-4>
                <I-7-5>0.5038877</I-7-5>
                <I-7-6>0.9816281</I-7-6>
                <I-7-7>0.3343511</I-7-7>
                <I-7-8>-0.09017822</I-7-8>
                <I-7-9>-0.4528674</I-7-9>
                <I-7-10>0.2892918</I-7-10>
                <I-7-11>0.808807</I-7-11>
                <I-7-12>0.8267816</I-7-12>
                <I-7-13>0.9611384</I-7-13>
                <I-7-14>-0.5843324</I-7-14>
                <I-7-15>0.6673729</I-7-15>
                <I-7-16>0.2832533</I-7-16>
                <I-7-17>-0.2358743</I-7-17>
                <I-8-1>0.7905756</I-8-1>
                <I-8-2>0.7879923</I-8-2>
                <I-8-3>0.9188749</I-8-3>
                <I-8-4>-0.6824175</I-8-4>
                <I-8-5>-0.4822597</I-8-5>
                <I-8-6>-1.047728</I-8-6>
                <I-8-7>0.01224273</I-8-7>
                <I-8-8>0.2540827</I-8-8>
                <I-8-9>1.511766</I-8-9>
                <I-8-10>1.467573</I-8-10>
                <I-8-11>0.1585604</I-8-11>
                <I-8-12>-1.85688</I-8-12>
                <I-8-13>-0.9065495</I-8-13>
                <I-8-14>0.6479415</I-8-14>
                <I-8-15>3.139422</I-8-15>
                <I-8-16>-1.033568</I-8-16>
                <I-8-17>0.2860274</I-8-17>
                <I-9-1>0.03605531</I-9-1>
                <I-9-2>-0.6413504</I-9-2>
                <I-9-3>-0.940308</I-9-3>
                <I-9-4>1.145056</I-9-4>
                <I-9-5>0.9621682</I-9-5>
                <I-9-6>-0.1012608</I-9-6>
                <I-9-7>0.6197365</I-9-7>
                <I-9-8>0.1870673</I-9-8>
                <I-9-9>-0.2447715</I-9-9>
                <I-9-10>-0.03906039</I-9-10>
                <I-9-11>0.09101338</I-9-11>
                <I-9-12>0.2047203</I-9-12>
                <I-9-13>0.4799114</I-9-13>
                <I-9-14>-0.6079342</I-9-14>
                <I-9-15>-1.059713</I-9-15>
                <I-9-16>0.7156569</I-9-16>
                <I-9-17>0.05201862</I-9-17>
                <I-10-1>-0.4378815</I-10-1>
                <I-10-2>1.085202</I-10-2>
                <I-10-3>0.8323719</I-10-3>
                <I-10-4>-1.466641</I-10-4>
                <I-10-5>-0.02879972</I-10-5>
                <I-10-6>-0.08820996</I-10-6>
                <I-10-7>-0.2385539</I-10-7>
                <I-10-8>2.267912</I-10-8>
                <I-10-9>0.2120106</I-10-9>
                <I-10-10>1.52966</I-10-10>
                <I-10-11>-1.032465</I-10-11>
                <I-10-12>2.169374</I-10-12>
                <I-10-13>0.02200765</I-10-13>
                <I-10-14>0.4159477</I-10-14>
                <I-10-15>-2.185906</I-10-15>
                <I-10-16>-0.05434485</I-10-16>
                <I-10-17>0.3453992</I-10-17>
                <I-11-1>-0.6680407</I-11-1>
                <I-11-2>2.372701</I-11-2>
                <I-11-3>0.6415357</I-11-3>
                <I-11-4>-0.84216</I-11-4>
                <I-11-5>-0.04045616</I-11-5>
                <I-11-6>-0.2316977</I-11-6>
                <I-11-7>-0.524053</I-11-7>
                <I-11-8>1.784723</I-11-8>
                <I-11-9>0.2495396</I-11-9>
                <I-11-10>1.698626</I-11-10>
                <I-11-11>-0.7195451</I-11-11>
                <I-11-12>1.135614</I-11-12>
                <I-11-13>0.08115139</I-11-13>
                <I-11-14>-0.4566751</I-11-14>
                <I-11-15>-1.677099</I-11-15>
                <I-11-16>-0.5024636</I-11-16>
                <I-11-17>0.1129325</I-11-17>
                <I-12-1>0.01425668</I-12-1>
                <I-12-2>1.919533</I-12-2>
                <I-12-3>0.5532583</I-12-3>
                <I-12-4>0.05458946</I-12-4>
                <I-12-5>-0.1884858</I-12-5>
                <I-12-6>-0.1661475</I-12-6>
                <I-12-7>-0.6517637</I-12-7>
                <I-12-8>2.009033</I-12-8>
                <I-12-9>-0.2934349</I-12-9>
                <I-12-10>1.155614</I-12-10>
                <I-12-11>0.1708998</I-12-11>
                <I-12-12>0.8128838</I-12-12>
                <I-12-13>0.485626</I-12-13>
                <I-12-14>-0.5552458</I-12-14>
                <I-12-15>-0.2865798</I-12-15>
                <I-12-16>0.003888449</I-12-16>
                <I-12-17>-0.248967</I-12-17>
                <I-13-1>0.2397465</I-13-1>
                <I-13-2>-1.136295</I-13-2>
                <I-13-3>1.069522</I-13-3>
                <I-13-4>-1.79902</I-13-4>
                <I-13-5>-1.376583</I-13-5>
                <I-13-6>-0.1737646</I-13-6>
                <I-13-7>-0.8931311</I-13-7>
                <I-13-8>0.08705257</I-13-8>
                <I-13-9>-0.2076692</I-13-9>
                <I-13-10>0.4293261</I-13-10>
                <I-13-11>0.09300356</I-13-11>
                <I-13-12>1.863376</I-13-12>
                <I-13-13>0.02396359</I-13-13>
                <I-13-14>-0.5965734</I-13-14>
                <I-13-15>0.3966284</I-13-15>
                <I-13-16>-0.01654778</I-13-16>
                <I-13-17>-0.2404035</I-13-17>
                <I-14-1>-0.06242834</I-14-1>
                <I-14-2>-0.2323729</I-14-2>
                <I-14-3>1.117439</I-14-3>
                <I-14-4>-0.6713137</I-14-4>
                <I-14-5>-0.405532</I-14-5>
                <I-14-6>-0.291637</I-14-6>
                <I-14-7>-0.1757794</I-14-7>
                <I-14-8>-0.1210717</I-14-8>
                <I-14-9>0.01479707</I-14-9>
                <I-14-10>0.3581557</I-14-10>
                <I-14-11>0.504707</I-14-11>
                <I-14-12>1.50342</I-14-12>
                <I-14-13>-0.2119482</I-14-13>
                <I-14-14>-0.1229942</I-14-14>
                <I-14-15>-0.3917045</I-14-15>
                <I-14-16>-0.02056184</I-14-16>
                <I-14-17>-0.455365</I-14-17>
                <I-15-1>-0.2492886</I-15-1>
                <I-15-2>-1.729595</I-15-2>
                <I-15-3>0.8724809</I-15-3>
                <I-15-4>1.638095</I-15-4>
                <I-15-5>-0.6181001</I-15-5>
                <I-15-6>-0.5484962</I-15-6>
                <I-15-7>-0.2907652</I-15-7>
                <I-15-8>-1.389368</I-15-8>
                <I-15-9>-0.5681028</I-15-9>
                <I-15-10>-1.280974</I-15-10>
                <I-15-11>-0.2862161</I-15-11>
                <I-15-12>0.1933239</I-15-12>
                <I-15-13>0.04457369</I-15-13>
                <I-15-14>-1.068561</I-15-14>
                <I-15-15>2.591243</I-15-15>
                <I-15-16>0.5026374</I-15-16>
                <I-15-17>0.2745208</I-15-17>
                <I-16-1>0.3286899</I-16-1>
                <I-16-2>-0.2474989</I-16-2>
                <I-16-3>0.41892</I-16-3>
                <I-16-4>-0.3090896</I-16-4>
                <I-16-5>-0.7840966</I-16-5>
                <I-16-6>0.2286859</I-16-6>
                <I-16-7>-0.6162459</I-16-7>
                <I-16-8>0.2302176</I-16-8>
                <I-16-9>-1.040343</I-16-9>
                <I-16-10>-1.163114</I-16-10>
                <I-16-11>0.8348649</I-16-11>
                <I-16-12>-0.3911926</I-16-12>
                <I-16-13>-0.09030025</I-16-13>
                <I-16-14>-0.8440955</I-16-14>
                <I-16-15>3.035517</I-16-15>
                <I-16-16>0.6806273</I-16-16>
                <I-16-17>0.02684454</I-16-17>
                <I-17-1>0.5151315</I-17-1>
                <I-17-2>0.5174047</I-17-2>
                <I-17-3>1.428397</I-17-3>
                <I-17-4>-0.7551456</I-17-4>
                <I-17-5>-0.7462977</I-17-5>
                <I-17-6>0.7364851</I-17-6>
                <I-17-7>-0.4250015</I-17-7>
                <I-17-8>0.925702</I-17-8>
                <I-17-9>-0.5200127</I-17-9>
                <I-17-10>-0.6793403</I-17-10>
                <I-17-11>0.020705</I-17-11>
                <I-17-12>-0.8671333</I-17-12>
                <I-17-13>-0.09105016</I-17-13>
                <I-17-14>-0.7818742</I-17-14>
                <I-17-15>2.6815</I-17-15>
                <I-17-16>1.188035</I-17-16>
                <I-17-17>1.05171</I-17-17>
                <I-18-1>-0.8902356</I-18-1>
                <I-18-2>1.573089</I-18-2>
                <I-18-3>0.1633194</I-18-3>
                <I-18-4>0.8712378</I-18-4>
                <I-18-5>0.9040219</I-18-5>
                <I-18-6>1.022688</I-18-6>
                <I-18-7>-0.0827172</I-18-7>
                <I-18-8>1.179679</I-18-8>
                <I-18-9>0.3187311</I-18-9>
                <I-18-10>1.031968</I-18-10>
                <I-18-11>0.5682557</I-18-11>
                <I-18-12>-3.180974</I-18-12>
                <I-18-13>0.464384</I-18-13>
                <I-18-14>-0.09513597</I-18-14>
                <I-18-15>3.063192</I-18-15>
                <I-18-16>-0.2472769</I-18-16>
                <I-18-17>-0.03343916</I-18-17>
                <I-19-1>-0.6635878</I-19-1>
                <I-19-2>1.454949</I-19-2>
                <I-19-3>-0.3772761</I-19-3>
                <I-19-4>0.2164963</I-19-4>
                <I-19-5>0.5085968</I-19-5>
                <I-19-6>0.868173</I-19-6>
                <I-19-7>0.08719523</I-19-7>
                <I-19-8>0.6744658</I-19-8>
                <I-19-9>0.1947064</I-19-9>
                <I-19-10>0.04357662</I-19-10>
                <I-19-11>1.002039</I-19-11>
                <I-19-12>-1.760248</I-19-12>
                <I-19-13>0.2657156</I-19-13>
                <I-19-14>0.282483</I-19-14>
                <I-19-15>0.9355898</I-19-15>
                <I-19-16>0.3100189</I-19-16>
                <I-19-17>-0.8744802</I-19-17>
                <I-20-1>-0.01967727</I-20-1>
                <I-20-2>-0.3771087</I-20-2>
                <I-20-3>1.002705</I-20-3>
                <I-20-4>-0.2092745</I-20-4>
                <I-20-5>0.1054416</I-20-5>
                <I-20-6>0.6393058</I-20-6>
                <I-20-7>0.08346337</I-20-7>
                <I-20-8>0.664497</I-20-8>
                <I-20-9>0.3466535</I-20-9>
                <I-20-10>0.220724</I-20-10>
                <I-20-11>0.358305</I-20-11>
                <I-20-12>0.1168047</I-20-12>
                <I-20-13>0.3574091</I-20-13>
                <I-20-14>0.3742444</I-20-14>
                <I-20-15>1.05792</I-20-15>
                <I-20-16>0.6869265</I-20-16>
                <I-20-17>0.06988643</I-20-17>
                <I-21-1>-0.2616202</I-21-1>
                <I-21-2>-0.2259601</I-21-2>
                <I-21-3>0.2619353</I-21-3>
                <I-21-4>-0.3947856</I-21-4>
                <I-21-5>0.4655098</I-21-5>
                <I-21-6>0.5320002</I-21-6>
                <I-21-7>0.3766975</I-21-7>
                <I-21-8>0.3926972</I-21-8>
                <I-21-9>0.2983058</I-21-9>
                <I-21-10>0.1724418</I-21-10>
                <I-21-11>-0.2241598</I-21-11>
                <I-21-12>1.090249</I-21-12>
                <I-21-13>0.7899905</I-21-13>
                <I-21-14>0.205159</I-21-14>
                <I-21-15>1.0231</I-21-15>
                <I-21-16>0.4656599</I-21-16>
                <I-21-17>-0.2630125</I-21-17>
                <I-22-1>0.621232</I-22-1>
                <I-22-2>-0.6296547</I-22-2>
                <I-22-3>0.8371292</I-22-3>
                <I-22-4>-0.3720692</I-22-4>
                <I-22-5>-0.1275769</I-22-5>
                <I-22-6>-0.1976693</I-22-6>
                <I-22-7>0.1106478</I-22-7>
                <I-22-8>0.5548359</I-22-8>
                <I-22-9>1.245568</I-22-9>
                <I-22-10>0.5215499</I-22-10>
                <I-22-11>-0.5642643</I-22-11>
                <I-22-12>-0.2415966</I-22-12>
                <I-22-13>-0.1088385</I-22-13>
                <I-22-14>0.6862497</I-22-14>
                <I-22-15>2.314064</I-22-15>
                <I-22-16>0.02225406</I-22-16>
                <I-22-17>-0.1120693</I-22-17>
                <I-23-1>0.2289951</I-23-1>
                <I-23-2>-1.314339</I-23-2>
                <I-23-3>0.06255227</I-23-3>
                <I-23-4>0.3966715</I-23-4>
                <I-23-5>0.5196418</I-23-5>
                <I-23-6>0.1955577</I-23-6>
                <I-23-7>0.4443859</I-23-7>
                <I-23-8>0.48132</I-23-8>
                <I-23-9>0.202359</I-23-9>
                <I-23-10>-0.2867332</I-23-10>
                <I-23-11>-0.3630593</I-23-11>
                <I-23-12>0.5742064</I-23-12>
                <I-23-13>0.5343941</I-23-13>
                <I-23-14>-0.05165394</I-23-14>
                <I-23-15>0.03961026</I-23-15>
                <I-23-16>0.8218772</I-23-16>
                <I-23-17>-0.1240816</I-23-17>
                <I-24-1>-0.09016778</I-24-1>
                <I-24-2>1.317516</I-24-2>
                <I-24-3>-0.2108269</I-24-3>
                <I-24-4>0.9644228</I-24-4>
                <I-24-5>0.338338</I-24-5>
                <I-24-6>0.2465208</I-24-6>
                <I-24-7>-0.1255007</I-24-7>
                <I-24-8>-0.1831187</I-24-8>
                <I-24-9>-0.04247146</I-24-9>
                <I-24-10>0.2389576</I-24-10>
                <I-24-11>0.5228783</I-24-11>
                <I-24-12>-0.6937989</I-24-12>
                <I-24-13>0.2491397</I-24-13>
                <I-24-14>-0.7026275</I-24-14>
                <I-24-15>0.5189083</I-24-15>
                <I-24-16>-0.2381431</I-24-16>
                <I-24-17>-0.01245729</I-24-17>
                <I-25-1>0.4821271</I-25-1>
                <I-25-2>0.6543515</I-25-2>
                <I-25-3>-0.02912312</I-25-3>
                <I-25-4>1.701233</I-25-4>
                <I-25-5>0.1602992</I-25-5>
                <I-25-6>-0.1279411</I-25-6>
                <I-25-7>-0.4032064</I-25-7>
                <I-25-8>-0.1588179</I-25-8>
                <I-25-9>-0.42544</I-25-9>
                <I-25-10>-0.1240625</I-25-10>
                <I-25-11>1.063359</I-25-11>
                <I-25-12>-1.166519</I-25-12>
                <I-25-13>0.4936261</I-25-13>
                <I-25-14>-0.8511973</I-25-14>
                <I-25-15>2.199376</I-25-15>
                <I-25-16>0.008229091</I-25-16>
                <I-25-17>-0.1243583</I-25-17>
                <I-26-1>0.6876484</I-26-1>
                <I-26-2>-2.171503</I-26-2>
                <I-26-3>0.2871521</I-26-3>
                <I-26-4>-0.1023982</I-26-4>
                <I-26-5>-1.11784</I-26-5>
                <I-26-6>0.06444577</I-26-6>
                <I-26-7>-0.3945783</I-26-7>
                <I-26-8>-1.820764</I-26-8>
                <I-26-9>-0.3096703</I-26-9>
                <I-26-10>-0.7603313</I-26-10>
                <I-26-11>1.195446</I-26-11>
                <I-26-12>-0.01604351</I-26-12>
                <I-26-13>0.1919513</I-26-13>
                <I-26-14>-0.6625327</I-26-14>
                <I-26-15>2.842646</I-26-15>
                <I-26-16>0.2977852</I-26-16>
                <I-26-17>-0.3157987</I-26-17>
                <I-27-1>0.5254433</I-27-1>
                <I-27-2>-1.427571</I-27-2>
                <I-27-3>0.4450954</I-27-3>
                <I-27-4>1.075343</I-27-4>
                <I-27-5>-0.08673086</I-27-5>
                <I-27-6>0.236574</I-27-6>
                <I-27-7>-0.03722801</I-27-7>
                <I-27-8>-2.118985</I-27-8>
                <I-27-9>-0.3471996</I-27-9>
                <I-27-10>-0.9215117</I-27-10>
                <I-27-11>1.757131</I-27-11>
                <I-27-12>-0.365997</I-27-12>
                <I-27-13>0.01603954</I-27-13>
                <I-27-14>-0.3989606</I-27-14>
                <I-27-15>1.984239</I-27-15>
                <I-27-16>0.2937946</I-27-16>
                <I-27-17>-0.6907543</I-27-17>
                <I-28-1>0.4989898</I-28-1>
                <I-28-2>0.9210024</I-28-2>
                <I-28-3>-0.1267836</I-28-3>
                <I-28-4>-0.7136135</I-28-4>
                <I-28-5>0.1620062</I-28-5>
                <I-28-6>0.4735874</I-28-6>
                <I-28-7>-0.102737</I-28-7>
                <I-28-8>0.9797961</I-28-8>
                <I-28-9>-0.1711254</I-28-9>
                <I-28-10>0.2339251</I-28-10>
                <I-28-11>0.6055359</I-28-11>
                <I-28-12>-0.2172558</I-28-12>
                <I-28-13>-0.07743354</I-28-13>
                <I-28-14>0.2222289</I-28-14>
                <I-28-15>0.4671554</I-28-15>
                <I-28-16>0.3040027</I-28-16>
                <I-28-17>0.03115938</I-28-17>
                <I-29-1>0.4422144</I-29-1>
                <I-29-2>1.168433</I-29-2>
                <I-29-3>0.2529697</I-29-3>
                <I-29-4>-0.9715838</I-29-4>
                <I-29-5>0.295902</I-29-5>
                <I-29-6>0.7925048</I-29-6>
                <I-29-7>0.1678867</I-29-7>
                <I-29-8>1.482538</I-29-8>
                <I-29-9>-0.01095468</I-29-9>
                <I-29-10>0.6208342</I-29-10>
                <I-29-11>0.2084599</I-29-11>
                <I-29-12>-0.4502271</I-29-12>
                <I-29-13>0.03718834</I-29-13>
                <I-29-14>0.2883599</I-29-14>
                <I-29-15>0.2451049</I-29-15>
                <I-29-16>0.347714</I-29-16>
                <I-29-17>0.4685934</I-29-17>
                <I-30-1>-0.3454763</I-30-1>
                <I-30-2>1.921389</I-30-2>
                <I-30-3>-0.1645848</I-30-3>
                <I-30-4>-0.2884215</I-30-4>
                <I-30-5>0.9660777</I-30-5>
                <I-30-6>0.8405947</I-30-6>
                <I-30-7>0.4290197</I-30-7>
                <I-30-8>1.669507</I-30-8>
                <I-30-9>0.4534227</I-30-9>
                <I-30-10>1.336456</I-30-10>
                <I-30-11>0.5672404</I-30-11>
                <I-30-12>-1.672172</I-30-12>
                <I-30-13>0.1399062</I-30-13>
                <I-30-14>0.4367073</I-30-14>
                <I-30-15>0.2910015</I-30-15>
                <I-30-16>-0.1649452</I-30-16>
                <I-30-17>-0.02398142</I-30-17>
                <I-31-1>-0.01713385</I-31-1>
                <I-31-2>1.692148</I-31-2>
                <I-31-3>-0.4898856</I-31-3>
                <I-31-4>-0.4607865</I-31-4>
                <I-31-5>0.8383491</I-31-5>
                <I-31-6>0.9783327</I-31-6>
                <I-31-7>0.4489851</I-31-7>
                <I-31-8>1.396865</I-31-8>
                <I-31-9>0.4664034</I-31-9>
                <I-31-10>0.9622557</I-31-10>
                <I-31-11>0.8191174</I-31-11>
                <I-31-12>-0.9817781</I-31-12>
                <I-31-13>0.2155746</I-31-13>
                <I-31-14>0.7654997</I-31-14>
                <I-31-15>-0.4878472</I-31-15>
                <I-31-16>-0.02629934</I-31-16>
                <I-31-17>-0.4194953</I-31-17>
                <I-32-1>-0.2338642</I-32-1>
                <I-32-2>0.352355</I-32-2>
                <I-32-3>-1.321473</I-32-3>
                <I-32-4>-0.3810388</I-32-4>
                <I-32-5>0.7501302</I-32-5>
                <I-32-6>0.4153623</I-32-6>
                <I-32-7>0.3864745</I-32-7>
                <I-32-8>-0.06359942</I-32-8>
                <I-32-9>0.3833088</I-32-9>
                <I-32-10>0.02342918</I-32-10>
                <I-32-11>-0.9749741</I-32-11>
                <I-32-12>2.066888</I-32-12>
                <I-32-13>0.8252092</I-32-13>
                <I-32-14>-0.318159</I-32-14>
                <I-32-15>-0.3095618</I-32-15>
                <I-32-16>-0.1525222</I-32-16>
                <I-32-17>-0.5858052</I-32-17>
                <I-33-1>0.5322756</I-33-1>
                <I-33-2>-0.7331016</I-33-2>
                <I-33-3>0.1717008</I-33-3>
                <I-33-4>0.9767492</I-33-4>
                <I-33-5>-0.1480379</I-33-5>
                <I-33-6>0.07555286</I-33-6>
                <I-33-7>0.05228617</I-33-7>
                <I-33-8>0.1043004</I-33-8>
                <I-33-9>-0.2329668</I-33-9>
                <I-33-10>-0.2530179</I-33-10>
                <I-33-11>0.6404417</I-33-11>
                <I-33-12>-0.2127258</I-33-12>
                <I-33-13>0.4744777</I-33-13>
                <I-33-14>0.1514289</I-33-14>
                <I-33-15>1.810515</I-33-15>
                <I-33-16>0.5263751</I-33-16>
                <I-33-17>0.008093104</I-33-17>
                <I-34-1>0.1964483</I-34-1>
                <I-34-2>0.724919</I-34-2>
                <I-34-3>1.10956</I-34-3>
                <I-34-4>-0.216084</I-34-4>
                <I-34-5>0.4677482</I-34-5>
                <I-34-6>0.7077907</I-34-6>
                <I-34-7>0.3512316</I-34-7>
                <I-34-8>0.9154721</I-34-8>
                <I-34-9>0.4203331</I-34-9>
                <I-34-10>0.693785</I-34-10>
                <I-34-11>-0.6441734</I-34-11>
                <I-34-12>-0.3859507</I-34-12>
                <I-34-13>0.08923973</I-34-13>
                <I-34-14>0.1922629</I-34-14>
                <I-34-15>-0.2841111</I-34-15>
                <I-34-16>0.5874014</I-34-16>
                <I-34-17>1.054812</I-34-17>
            </Weight>
        </Input>
        <Hidden>
            <HiddenNodeCount>17</HiddenNodeCount>
            <Weight>
                <H-1-1>0.2901096</H-1-1>
                <H-1-2>3.266992</H-1-2>
                <H-1-3>-0.6208476</H-1-3>
                <H-2-1>-0.01341891</H-2-1>
                <H-2-2>1.904611</H-2-2>
                <H-2-3>3.684631</H-2-3>
                <H-3-1>2.214775</H-3-1>
                <H-3-2>-0.07027441</H-3-2>
                <H-3-3>-0.5999885</H-3-3>
                <H-4-1>1.831163</H-4-1>
                <H-4-2>-0.7306419</H-4-2>
                <H-4-3>1.11985</H-4-3>
                <H-5-1>-0.1753426</H-5-1>
                <H-5-2>-1.393305</H-5-2>
                <H-5-3>1.472264</H-5-3>
                <H-6-1>-0.2017509</H-6-1>
                <H-6-2>1.083452</H-6-2>
                <H-6-3>2.778459</H-6-3>
                <H-7-1>0.07183619</H-7-1>
                <H-7-2>-0.7796988</H-7-2>
                <H-7-3>-0.1482457</H-7-3>
                <H-8-1>-1.171658</H-8-1>
                <H-8-2>-1.773425</H-8-2>
                <H-8-3>-2.182886</H-8-3>
                <H-9-1>0.5480616</H-9-1>
                <H-9-2>1.518066</H-9-2>
                <H-9-3>-1.107323</H-9-3>
                <H-10-1>2.264334</H-10-1>
                <H-10-2>0.859616</H-10-2>
                <H-10-3>-0.7509271</H-10-3>
                <H-11-1>0.5605131</H-11-1>
                <H-11-2>-2.712498</H-11-2>
                <H-11-3>0.359477</H-11-3>
                <H-12-1>-1.487088</H-12-1>
                <H-12-2>-0.08676494</H-12-2>
                <H-12-3>2.362053</H-12-3>
                <H-13-1>-1.609468</H-13-1>
                <H-13-2>-0.2817715</H-13-2>
                <H-13-3>1.035234</H-13-3>
                <H-14-1>1.691586</H-14-1>
                <H-14-2>-0.1691421</H-14-2>
                <H-14-3>-1.570556</H-14-3>
                <H-15-1>-0.5328194</H-15-1>
                <H-15-2>2.835277</H-15-2>
                <H-15-3>-1.969632</H-15-3>
                <H-16-1>0.5106595</H-16-1>
                <H-16-2>-1.853198</H-16-2>
                <H-16-3>1.799841</H-16-3>
                <H-17-1>-2.37247</H-17-1>
                <H-17-2>-0.9647538</H-17-2>
                <H-17-3>-2.438869</H-17-3>
            </Weight>
        </Hidden>
        <Output>
            <OutputNodeCount>3</OutputNodeCount>
            <Error>0.1903023</Error>
        </Output>
    </Layer>
</NeuralNetwork>