<?xml version="1.0" encoding="utf-8"?>
<NeuralNetwork>
    <Algorithm>BP</Algorithm>
    <Layer>
        <Input>
            <InputNodeCount>34</InputNodeCount>
            <Weight>
                <I-1-1>0.9036949</I-1-1>
                <I-1-2>-0.04003178</I-1-2>
                <I-1-3>0.09444659</I-1-3>
                <I-1-4>-0.9086236</I-1-4>
                <I-1-5>-0.1245</I-1-5>
                <I-1-6>-0.1304201</I-1-6>
                <I-1-7>0.325964</I-1-7>
                <I-1-8>0.8075529</I-1-8>
                <I-1-9>1.429131</I-1-9>
                <I-1-10>0.6251886</I-1-10>
                <I-1-11>-0.7719424</I-1-11>
                <I-1-12>-0.3002753</I-1-12>
                <I-1-13>0.9624114</I-1-13>
                <I-1-14>0.5956602</I-1-14>
                <I-1-15>0.6958615</I-1-15>
                <I-1-16>0.1557127</I-1-16>
                <I-1-17>1.126755</I-1-17>
                <I-2-1>1.677988</I-2-1>
                <I-2-2>1.68841</I-2-2>
                <I-2-3>0.7301084</I-2-3>
                <I-2-4>0.7547493</I-2-4>
                <I-2-5>0.7143497</I-2-5>
                <I-2-6>0.9346233</I-2-6>
                <I-2-7>-0.01573671</I-2-7>
                <I-2-8>0.14167</I-2-8>
                <I-2-9>0.5782264</I-2-9>
                <I-2-10>0.2599054</I-2-10>
                <I-2-11>-0.4822311</I-2-11>
                <I-2-12>1.835347</I-2-12>
                <I-2-13>-0.08565789</I-2-13>
                <I-2-14>0.05119235</I-2-14>
                <I-2-15>0.8853753</I-2-15>
                <I-2-16>-1.063176</I-2-16>
                <I-2-17>0.2289536</I-2-17>
                <I-3-1>-0.6579677</I-3-1>
                <I-3-2>0.03275597</I-3-2>
                <I-3-3>-0.4951899</I-3-3>
                <I-3-4>-1.363753</I-3-4>
                <I-3-5>0.3574236</I-3-5>
                <I-3-6>0.1363837</I-3-6>
                <I-3-7>0.6213073</I-3-7>
                <I-3-8>0.8787506</I-3-8>
                <I-3-9>0.7112557</I-3-9>
                <I-3-10>0.240731</I-3-10>
                <I-3-11>0.6757007</I-3-11>
                <I-3-12>-0.3565146</I-3-12>
                <I-3-13>1.230444</I-3-13>
                <I-3-14>0.3317509</I-3-14>
                <I-3-15>-2.026552</I-3-15>
                <I-3-16>-0.2300911</I-3-16>
                <I-3-17>0.9760715</I-3-17>
                <I-4-1>2.626325</I-4-1>
                <I-4-2>-1.131374</I-4-2>
                <I-4-3>2.041862</I-4-3>
                <I-4-4>-0.224963</I-4-4>
                <I-4-5>2.20464</I-4-5>
                <I-4-6>1.343243</I-4-6>
                <I-4-7>0.9303504</I-4-7>
                <I-4-8>1.578797</I-4-8>
                <I-4-9>-0.08306148</I-4-9>
                <I-4-10>-0.06046579</I-4-10>
                <I-4-11>-0.1122814</I-4-11>
                <I-4-12>2.744658</I-4-12>
                <I-4-13>1.507516</I-4-13>
                <I-4-14>0.6059841</I-4-14>
                <I-4-15>1.729515</I-4-15>
                <I-4-16>-0.125618</I-4-16>
                <I-4-17>3.182185</I-4-17>
                <I-5-1>-0.5987564</I-5-1>
                <I-5-2>-0.5411185</I-5-2>
                <I-5-3>-1.118008</I-5-3>
                <I-5-4>0.9315026</I-5-4>
                <I-5-5>-0.3553969</I-5-5>
                <I-5-6>0.04405156</I-5-6>
                <I-5-7>-0.4245884</I-5-7>
                <I-5-8>-0.3938579</I-5-8>
                <I-5-9>-0.2639522</I-5-9>
                <I-5-10>-0.3082118</I-5-10>
                <I-5-11>1.338709</I-5-11>
                <I-5-12>-1.266466</I-5-12>
                <I-5-13>-0.5660386</I-5-13>
                <I-5-14>-0.08076306</I-5-14>
                <I-5-15>-0.6663833</I-5-15>
                <I-5-16>0.2732114</I-5-16>
                <I-5-17>-0.00539394</I-5-17>
                <I-6-1>-0.8415887</I-6-1>
                <I-6-2>-0.2050336</I-6-2>
                <I-6-3>0.7871326</I-6-3>
                <I-6-4>-0.1261857</I-6-4>
                <I-6-5>0.3610154</I-6-5>
                <I-6-6>0.6172087</I-6-6>
                <I-6-7>-0.07051997</I-6-7>
                <I-6-8>0.05434906</I-6-8>
                <I-6-9>-0.06055858</I-6-9>
                <I-6-10>-0.3794645</I-6-10>
                <I-6-11>1.359857</I-6-11>
                <I-6-12>1.116351</I-6-12>
                <I-6-13>0.3160218</I-6-13>
                <I-6-14>-0.2335376</I-6-14>
                <I-6-15>0.6043237</I-6-15>
                <I-6-16>0.4826297</I-6-16>
                <I-6-17>-0.1410626</I-6-17>
                <I-7-1>-0.5878152</I-7-1>
                <I-7-2>1.275074</I-7-2>
                <I-7-3>0.0215394</I-7-3>
                <I-7-4>0.6028305</I-7-4>
                <I-7-5>0.3215163</I-7-5>
                <I-7-6>0.5956277</I-7-6>
                <I-7-7>0.1192755</I-7-7>
                <I-7-8>-0.1850182</I-7-8>
                <I-7-9>0.3195508</I-7-9>
                <I-7-10>0.3428745</I-7-10>
                <I-7-11>0.8199768</I-7-11>
                <I-7-12>1.767662</I-7-12>
                <I-7-13>0.3849415</I-7-13>
                <I-7-14>-0.09253988</I-7-14>
                <I-7-15>0.4041129</I-7-15>
                <I-7-16>0.3749956</I-7-16>
                <I-7-17>-1.146875</I-7-17>
                <I-8-1>0.4519545</I-8-1>
                <I-8-2>1.317657</I-8-2>
                <I-8-3>0.9746465</I-8-3>
                <I-8-4>0.2301744</I-8-4>
                <I-8-5>-0.4081182</I-8-5>
                <I-8-6>-0.5106611</I-8-6>
                <I-8-7>0.2471026</I-8-7>
                <I-8-8>0.9363927</I-8-8>
                <I-8-9>1.868877</I-8-9>
                <I-8-10>1.411936</I-8-10>
                <I-8-11>0.2421199</I-8-11>
                <I-8-12>-1.291286</I-8-12>
                <I-8-13>-0.3981351</I-8-13>
                <I-8-14>1.205174</I-8-14>
                <I-8-15>2.899657</I-8-15>
                <I-8-16>-0.3268921</I-8-16>
                <I-8-17>0.9893017</I-8-17>
                <I-9-1>-0.9235944</I-9-1>
                <I-9-2>0.8242584</I-9-2>
                <I-9-3>-1.154835</I-9-3>
                <I-9-4>0.7177373</I-9-4>
                <I-9-5>0.5417731</I-9-5>
                <I-9-6>0.1545339</I-9-6>
                <I-9-7>0.3911912</I-9-7>
                <I-9-8>0.6932853</I-9-8>
                <I-9-9>-0.4357571</I-9-9>
                <I-9-10>0.16993</I-9-10>
                <I-9-11>0.2269577</I-9-11>
                <I-9-12>0.06160717</I-9-12>
                <I-9-13>1.209301</I-9-13>
                <I-9-14>0.09990092</I-9-14>
                <I-9-15>-0.5508226</I-9-15>
                <I-9-16>0.9346532</I-9-16>
                <I-9-17>0.5056034</I-9-17>
                <I-10-1>-0.6450574</I-10-1>
                <I-10-2>0.4728225</I-10-2>
                <I-10-3>0.9526883</I-10-3>
                <I-10-4>-2.181602</I-10-4>
                <I-10-5>0.1616963</I-10-5>
                <I-10-6>-0.2181354</I-10-6>
                <I-10-7>0.007464372</I-10-7>
                <I-10-8>-0.2661848</I-10-8>
                <I-10-9>0.1338814</I-10-9>
                <I-10-10>0.009560556</I-10-10>
                <I-10-11>-1.162121</I-10-11>
                <I-10-12>0.9281765</I-10-12>
                <I-10-13>-0.003799128</I-10-13>
                <I-10-14>0.01230677</I-10-14>
                <I-10-15>-2.014055</I-10-15>
                <I-10-16>0.4711292</I-10-16>
                <I-10-17>0.306362</I-10-17>
                <I-11-1>0.07360072</I-11-1>
                <I-11-2>2.817267</I-11-2>
                <I-11-3>0.7136714</I-11-3>
                <I-11-4>-0.861537</I-11-4>
                <I-11-5>0.148092</I-11-5>
                <I-11-6>-0.3681883</I-11-6>
                <I-11-7>-0.8275182</I-11-7>
                <I-11-8>-0.2821501</I-11-8>
                <I-11-9>0.6910968</I-11-9>
                <I-11-10>0.3187022</I-11-10>
                <I-11-11>-0.476741</I-11-11>
                <I-11-12>0.8791828</I-11-12>
                <I-11-13>0.06217486</I-11-13>
                <I-11-14>-0.1903959</I-11-14>
                <I-11-15>-1.257673</I-11-15>
                <I-11-16>-0.1765981</I-11-16>
                <I-11-17>0.003597928</I-11-17>
                <I-12-1>-0.3218549</I-12-1>
                <I-12-2>0.515886</I-12-2>
                <I-12-3>0.7654961</I-12-3>
                <I-12-4>-1.153779</I-12-4>
                <I-12-5>0.1333516</I-12-5>
                <I-12-6>-0.3070103</I-12-6>
                <I-12-7>-0.7542124</I-12-7>
                <I-12-8>0.06826635</I-12-8>
                <I-12-9>0.5396578</I-12-9>
                <I-12-10>0.02995783</I-12-10>
                <I-12-11>-0.09969503</I-12-11>
                <I-12-12>0.6036049</I-12-12>
                <I-12-13>0.7195559</I-12-13>
                <I-12-14>-0.4449058</I-12-14>
                <I-12-15>-0.4523184</I-12-15>
                <I-12-16>0.5879412</I-12-16>
                <I-12-17>-0.4111417</I-12-17>
                <I-13-1>-0.1190312</I-13-1>
                <I-13-2>-1.07918</I-13-2>
                <I-13-3>1.069671</I-13-3>
                <I-13-4>-1.122523</I-13-4>
                <I-13-5>-1.497582</I-13-5>
                <I-13-6>-0.14684</I-13-6>
                <I-13-7>-1.014487</I-13-7>
                <I-13-8>-0.06221468</I-13-8>
                <I-13-9>0.5693194</I-13-9>
                <I-13-10>-0.01930602</I-13-10>
                <I-13-11>-0.5175147</I-13-11>
                <I-13-12>1.828234</I-13-12>
                <I-13-13>0.6392773</I-13-13>
                <I-13-14>-0.3741038</I-13-14>
                <I-13-15>0.1819801</I-13-15>
                <I-13-16>1.097337</I-13-16>
                <I-13-17>-0.01700748</I-13-17>
                <I-14-1>-0.4457748</I-14-1>
                <I-14-2>0.1459027</I-14-2>
                <I-14-3>1.197681</I-14-3>
                <I-14-4>0.01509846</I-14-4>
                <I-14-5>-0.3646945</I-14-5>
                <I-14-6>-0.435356</I-14-6>
                <I-14-7>-0.1654028</I-14-7>
                <I-14-8>-0.1591327</I-14-8>
                <I-14-9>0.1742099</I-14-9>
                <I-14-10>0.183637</I-14-10>
                <I-14-11>0.2791125</I-14-11>
                <I-14-12>1.255883</I-14-12>
                <I-14-13>0.0685254</I-14-13>
                <I-14-14>-0.02597898</I-14-14>
                <I-14-15>-0.08936018</I-14-15>
                <I-14-16>0.8746608</I-14-16>
                <I-14-17>-0.1160813</I-14-17>
                <I-15-1>0.0614199</I-15-1>
                <I-15-2>-0.2512846</I-15-2>
                <I-15-3>0.3683485</I-15-3>
                <I-15-4>1.481632</I-15-4>
                <I-15-5>-1.564858</I-15-5>
                <I-15-6>-0.3521394</I-15-6>
                <I-15-7>-0.6414147</I-15-7>
                <I-15-8>0.1865443</I-15-8>
                <I-15-9>-1.302537</I-15-9>
                <I-15-10>-0.4260094</I-15-10>
                <I-15-11>-0.2905081</I-15-11>
                <I-15-12>-0.7278897</I-15-12>
                <I-15-13>0.4606562</I-15-13>
                <I-15-14>-0.7936807</I-15-14>
                <I-15-15>2.256309</I-15-15>
                <I-15-16>1.242664</I-15-16>
                <I-15-17>0.8147534</I-15-17>
                <I-16-1>1.558151</I-16-1>
                <I-16-2>1.652451</I-16-2>
                <I-16-3>0.8705519</I-16-3>
                <I-16-4>0.1326888</I-16-4>
                <I-16-5>-0.5288624</I-16-5>
                <I-16-6>0.286356</I-16-6>
                <I-16-7>-0.7273877</I-16-7>
                <I-16-8>-0.009358423</I-16-8>
                <I-16-9>-0.8786892</I-16-9>
                <I-16-10>-0.4884588</I-16-10>
                <I-16-11>0.8388184</I-16-11>
                <I-16-12>-0.277361</I-16-12>
                <I-16-13>-0.2382116</I-16-13>
                <I-16-14>-0.7897692</I-16-14>
                <I-16-15>2.707458</I-16-15>
                <I-16-16>1.150872</I-16-16>
                <I-16-17>0.8756566</I-16-17>
                <I-17-1>-0.1989819</I-17-1>
                <I-17-2>0.9166094</I-17-2>
                <I-17-3>1.234578</I-17-3>
                <I-17-4>-0.6177228</I-17-4>
                <I-17-5>-0.8368329</I-17-5>
                <I-17-6>0.4683996</I-17-6>
                <I-17-7>-0.6988892</I-17-7>
                <I-17-8>-0.04546044</I-17-8>
                <I-17-9>-1.390915</I-17-9>
                <I-17-10>-0.7248849</I-17-10>
                <I-17-11>1.201924</I-17-11>
                <I-17-12>-0.9123089</I-17-12>
                <I-17-13>-0.4221332</I-17-13>
                <I-17-14>-0.7166399</I-17-14>
                <I-17-15>2.44372</I-17-15>
                <I-17-16>0.8678659</I-17-16>
                <I-17-17>1.456568</I-17-17>
                <I-18-1>-1.618111</I-18-1>
                <I-18-2>1.379397</I-18-2>
                <I-18-3>0.6571744</I-18-3>
                <I-18-4>-0.4422286</I-18-4>
                <I-18-5>1.326526</I-18-5>
                <I-18-6>0.6385273</I-18-6>
                <I-18-7>-0.4769982</I-18-7>
                <I-18-8>-0.197059</I-18-8>
                <I-18-9>0.3128336</I-18-9>
                <I-18-10>0.7061421</I-18-10>
                <I-18-11>0.3481931</I-18-11>
                <I-18-12>-1.169595</I-18-12>
                <I-18-13>-0.6031629</I-18-13>
                <I-18-14>-0.3059333</I-18-14>
                <I-18-15>3.10738</I-18-15>
                <I-18-16>-1.953053</I-18-16>
                <I-18-17>-0.421119</I-18-17>
                <I-19-1>-2.080296</I-19-1>
                <I-19-2>2.330754</I-19-2>
                <I-19-3>-0.2154612</I-19-3>
                <I-19-4>-0.4327239</I-19-4>
                <I-19-5>0.2984178</I-19-5>
                <I-19-6>0.6688104</I-19-6>
                <I-19-7>0.1873873</I-19-7>
                <I-19-8>0.04176179</I-19-8>
                <I-19-9>-0.3595043</I-19-9>
                <I-19-10>0.002923197</I-19-10>
                <I-19-11>0.7310472</I-19-11>
                <I-19-12>-0.289747</I-19-12>
                <I-19-13>0.1444498</I-19-13>
                <I-19-14>-0.2732075</I-19-14>
                <I-19-15>1.272744</I-19-15>
                <I-19-16>-1.255636</I-19-16>
                <I-19-17>-0.4698084</I-19-17>
                <I-20-1>0.05859021</I-20-1>
                <I-20-2>0.1530426</I-20-2>
                <I-20-3>1.227519</I-20-3>
                <I-20-4>-0.3338524</I-20-4>
                <I-20-5>0.4932122</I-20-5>
                <I-20-6>0.53158</I-20-6>
                <I-20-7>0.3170123</I-20-7>
                <I-20-8>0.4441075</I-20-8>
                <I-20-9>0.3616951</I-20-9>
                <I-20-10>0.2843817</I-20-10>
                <I-20-11>0.1255737</I-20-11>
                <I-20-12>1.456419</I-20-12>
                <I-20-13>0.536018</I-20-13>
                <I-20-14>0.1286125</I-20-14>
                <I-20-15>0.795298</I-20-15>
                <I-20-16>0.1797145</I-20-16>
                <I-20-17>0.04216694</I-20-17>
                <I-21-1>0.1554688</I-21-1>
                <I-21-2>0.993143</I-21-2>
                <I-21-3>0.8647732</I-21-3>
                <I-21-4>0.04065864</I-21-4>
                <I-21-5>0.69844</I-21-5>
                <I-21-6>0.325787</I-21-6>
                <I-21-7>0.4919495</I-21-7>
                <I-21-8>0.2094156</I-21-8>
                <I-21-9>0.5167544</I-21-9>
                <I-21-10>0.6455411</I-21-10>
                <I-21-11>-0.2743745</I-21-11>
                <I-21-12>1.782083</I-21-12>
                <I-21-13>0.5804745</I-21-13>
                <I-21-14>0.2941135</I-21-14>
                <I-21-15>0.7952352</I-21-15>
                <I-21-16>0.09088662</I-21-16>
                <I-21-17>-0.3607413</I-21-17>
                <I-22-1>0.6453376</I-22-1>
                <I-22-2>1.009377</I-22-2>
                <I-22-3>1.211266</I-22-3>
                <I-22-4>-0.2256599</I-22-4>
                <I-22-5>0.2336372</I-22-5>
                <I-22-6>0.05763981</I-22-6>
                <I-22-7>0.4508511</I-22-7>
                <I-22-8>0.7601438</I-22-8>
                <I-22-9>1.256427</I-22-9>
                <I-22-10>0.9400873</I-22-10>
                <I-22-11>-0.5782959</I-22-11>
                <I-22-12>0.262617</I-22-12>
                <I-22-13>0.2239569</I-22-13>
                <I-22-14>0.8079863</I-22-14>
                <I-22-15>2.097984</I-22-15>
                <I-22-16>-0.04505748</I-22-16>
                <I-22-17>0.5973396</I-22-17>
                <I-23-1>-0.05742436</I-23-1>
                <I-23-2>0.7926999</I-23-2>
                <I-23-3>0.3015851</I-23-3>
                <I-23-4>-0.1268871</I-23-4>
                <I-23-5>0.6335971</I-23-5>
                <I-23-6>0.3102392</I-23-6>
                <I-23-7>0.5528779</I-23-7>
                <I-23-8>0.5985717</I-23-8>
                <I-23-9>-0.06089686</I-23-9>
                <I-23-10>0.2640708</I-23-10>
                <I-23-11>-0.3508807</I-23-11>
                <I-23-12>0.7240424</I-23-12>
                <I-23-13>0.977672</I-23-13>
                <I-23-14>0.1453325</I-23-14>
                <I-23-15>0.1977673</I-23-15>
                <I-23-16>0.5107124</I-23-16>
                <I-23-17>0.4605066</I-23-17>
                <I-24-1>0.8586569</I-24-1>
                <I-24-2>2.374505</I-24-2>
                <I-24-3>-0.2590143</I-24-3>
                <I-24-4>1.660049</I-24-4>
                <I-24-5>0.3364009</I-24-5>
                <I-24-6>0.2399556</I-24-6>
                <I-24-7>-0.6749692</I-24-7>
                <I-24-8>0.2840437</I-24-8>
                <I-24-9>0.4772109</I-24-9>
                <I-24-10>0.379149</I-24-10>
                <I-24-11>0.8953915</I-24-11>
                <I-24-12>0.290993</I-24-12>
                <I-24-13>0.2559902</I-24-13>
                <I-24-14>-0.03269965</I-24-14>
                <I-24-15>0.7663499</I-24-15>
                <I-24-16>-0.437724</I-24-16>
                <I-24-17>-0.08276635</I-24-17>
                <I-25-1>0.3532055</I-25-1>
                <I-25-2>-0.1369394</I-25-2>
                <I-25-3>0.06282517</I-25-3>
                <I-25-4>1.207799</I-25-4>
                <I-25-5>0.2916478</I-25-5>
                <I-25-6>-0.13887</I-25-6>
                <I-25-7>-0.7517192</I-25-7>
                <I-25-8>0.4344548</I-25-8>
                <I-25-9>0.4857704</I-25-9>
                <I-25-10>0.2704072</I-25-10>
                <I-25-11>0.9224215</I-25-11>
                <I-25-12>-0.1345716</I-25-12>
                <I-25-13>0.753365</I-25-13>
                <I-25-14>-0.3372116</I-25-14>
                <I-25-15>1.861715</I-25-15>
                <I-25-16>0.06681561</I-25-16>
                <I-25-17>-0.2475113</I-25-17>
                <I-26-1>0.536034</I-26-1>
                <I-26-2>-1.502001</I-26-2>
                <I-26-3>0.1670113</I-26-3>
                <I-26-4>1.289132</I-26-4>
                <I-26-5>-1.42925</I-26-5>
                <I-26-6>0.2213061</I-26-6>
                <I-26-7>-0.7619185</I-26-7>
                <I-26-8>0.5639598</I-26-8>
                <I-26-9>0.5454341</I-26-9>
                <I-26-10>0.3111381</I-26-10>
                <I-26-11>0.714599</I-26-11>
                <I-26-12>1.190066</I-26-12>
                <I-26-13>0.8330956</I-26-13>
                <I-26-14>-0.03640794</I-26-14>
                <I-26-15>2.456069</I-26-15>
                <I-26-16>0.886216</I-26-16>
                <I-26-17>-0.05336967</I-26-17>
                <I-27-1>0.3492879</I-27-1>
                <I-27-2>-0.4369297</I-27-2>
                <I-27-3>0.4049837</I-27-3>
                <I-27-4>2.476582</I-27-4>
                <I-27-5>-0.2363962</I-27-5>
                <I-27-6>0.2227815</I-27-6>
                <I-27-7>-0.2728679</I-27-7>
                <I-27-8>0.3770571</I-27-8>
                <I-27-9>-0.1096715</I-27-9>
                <I-27-10>0.4240742</I-27-10>
                <I-27-11>1.661247</I-27-11>
                <I-27-12>0.6276779</I-27-12>
                <I-27-13>0.3223349</I-27-13>
                <I-27-14>0.1017186</I-27-14>
                <I-27-15>2.114714</I-27-15>
                <I-27-16>0.6635556</I-27-16>
                <I-27-17>-0.3124449</I-27-17>
                <I-28-1>0.9583747</I-28-1>
                <I-28-2>1.131904</I-28-2>
                <I-28-3>0.3511074</I-28-3>
                <I-28-4>-0.4144594</I-28-4>
                <I-28-5>0.763001</I-28-5>
                <I-28-6>0.4042411</I-28-6>
                <I-28-7>0.01701385</I-28-7>
                <I-28-8>0.07204667</I-28-8>
                <I-28-9>0.2769224</I-28-9>
                <I-28-10>0.1437761</I-28-10>
                <I-28-11>0.6096588</I-28-11>
                <I-28-12>0.3002611</I-28-12>
                <I-28-13>-0.359432</I-28-13>
                <I-28-14>0.1119507</I-28-14>
                <I-28-15>0.4706012</I-28-15>
                <I-28-16>0.1691046</I-28-16>
                <I-28-17>0.1854447</I-28-17>
                <I-29-1>-0.07019708</I-29-1>
                <I-29-2>0.6289566</I-29-2>
                <I-29-3>0.4081224</I-29-3>
                <I-29-4>-0.8246812</I-29-4>
                <I-29-5>0.7240586</I-29-5>
                <I-29-6>0.560266</I-29-6>
                <I-29-7>0.2062639</I-29-7>
                <I-29-8>0.2090005</I-29-8>
                <I-29-9>-0.07918216</I-29-9>
                <I-29-10>0.1705648</I-29-10>
                <I-29-11>0.8012064</I-29-11>
                <I-29-12>-0.01221871</I-29-12>
                <I-29-13>-0.3364006</I-29-13>
                <I-29-14>0.1835212</I-29-14>
                <I-29-15>0.2936811</I-29-15>
                <I-29-16>-0.1823966</I-29-16>
                <I-29-17>0.4009067</I-29-17>
                <I-30-1>-0.864731</I-30-1>
                <I-30-2>1.085341</I-30-2>
                <I-30-3>0.3344198</I-30-3>
                <I-30-4>-0.8669282</I-30-4>
                <I-30-5>1.65072</I-30-5>
                <I-30-6>0.550342</I-30-6>
                <I-30-7>0.4072049</I-30-7>
                <I-30-8>0.1932001</I-30-8>
                <I-30-9>0.8176695</I-30-9>
                <I-30-10>0.7460732</I-30-10>
                <I-30-11>0.4593451</I-30-11>
                <I-30-12>-0.2058363</I-30-12>
                <I-30-13>-0.6019213</I-30-13>
                <I-30-14>0.1938622</I-30-14>
                <I-30-15>0.4805572</I-30-15>
                <I-30-16>-1.387871</I-30-16>
                <I-30-17>-0.4879364</I-30-17>
                <I-31-1>-0.8808711</I-31-1>
                <I-31-2>1.391074</I-31-2>
                <I-31-3>-0.1569103</I-31-3>
                <I-31-4>-0.7071812</I-31-4>
                <I-31-5>1.206624</I-31-5>
                <I-31-6>0.7804706</I-31-6>
                <I-31-7>0.6743839</I-31-7>
                <I-31-8>0.2926094</I-31-8>
                <I-31-9>0.556513</I-31-9>
                <I-31-10>0.5144647</I-31-10>
                <I-31-11>0.6857956</I-31-11>
                <I-31-12>0.2140693</I-31-12>
                <I-31-13>-0.05310195</I-31-13>
                <I-31-14>0.3502293</I-31-14>
                <I-31-15>-0.1517887</I-31-15>
                <I-31-16>-1.179139</I-31-16>
                <I-31-17>-0.4872713</I-31-17>
                <I-32-1>0.4437713</I-32-1>
                <I-32-2>1.729993</I-32-2>
                <I-32-3>-0.5655975</I-32-3>
                <I-32-4>0.7390092</I-32-4>
                <I-32-5>0.4404752</I-32-5>
                <I-32-6>0.2183927</I-32-6>
                <I-32-7>0.1497966</I-32-7>
                <I-32-8>0.01062791</I-32-8>
                <I-32-9>0.7901093</I-32-9>
                <I-32-10>0.8423389</I-32-10>
                <I-32-11>-0.609908</I-32-11>
                <I-32-12>0.7712973</I-32-12>
                <I-32-13>0.04890047</I-32-13>
                <I-32-14>0.3509937</I-32-14>
                <I-32-15>-0.2402122</I-32-15>
                <I-32-16>0.1123468</I-32-16>
                <I-32-17>-0.7258175</I-32-17>
                <I-33-1>-0.5454485</I-33-1>
                <I-33-2>-2.581392</I-33-2>
                <I-33-3>0.3118389</I-33-3>
                <I-33-4>-0.212246</I-33-4>
                <I-33-5>-0.01475086</I-33-5>
                <I-33-6>0.07117932</I-33-6>
                <I-33-7>0.2533099</I-33-7>
                <I-33-8>0.2304167</I-33-8>
                <I-33-9>0.1585682</I-33-9>
                <I-33-10>0.001252095</I-33-10>
                <I-33-11>0.1270436</I-33-11>
                <I-33-12>-0.1655622</I-33-12>
                <I-33-13>0.7273814</I-33-13>
                <I-33-14>-0.00450985</I-33-14>
                <I-33-15>1.225315</I-33-15>
                <I-33-16>0.7845433</I-33-16>
                <I-33-17>-0.04474188</I-33-17>
                <I-34-1>-1.74708</I-34-1>
                <I-34-2>-0.7758885</I-34-2>
                <I-34-3>0.4640439</I-34-3>
                <I-34-4>-0.520398</I-34-4>
                <I-34-5>0.1220123</I-34-5>
                <I-34-6>0.382049</I-34-6>
                <I-34-7>0.188488</I-34-7>
                <I-34-8>0.1839045</I-34-8>
                <I-34-9>-0.6122136</I-34-9>
                <I-34-10>-0.02642582</I-34-10>
                <I-34-11>0.5331075</I-34-11>
                <I-34-12>-0.544955</I-34-12>
                <I-34-13>-0.09392886</I-34-13>
                <I-34-14>0.2031451</I-34-14>
                <I-34-15>-0.1938519</I-34-15>
                <I-34-16>-0.2030078</I-34-16>
                <I-34-17>0.6108957</I-34-17>
            </Weight>
        </Input>
        <Hidden>
            <HiddenNodeCount>17</HiddenNodeCount>
            <Weight>
                <H-1-1>0.6842993</H-1-1>
                <H-1-2>2.848825</H-1-2>
                <H-1-3>1.963499</H-1-3>
                <H-2-1>-0.9029067</H-2-1>
                <H-2-2>2.340011</H-2-2>
                <H-2-3>3.684136</H-2-3>
                <H-3-1>2.002634</H-3-1>
                <H-3-2>-0.5662261</H-3-2>
                <H-3-3>-1.799848</H-3-3>
                <H-4-1>1.841636</H-4-1>
                <H-4-2>0.6328248</H-4-2>
                <H-4-3>1.45318</H-4-3>
                <H-5-1>-0.7882078</H-5-1>
                <H-5-2>-2.225484</H-5-2>
                <H-5-3>2.431885</H-5-3>
                <H-6-1>-0.2720309</H-6-1>
                <H-6-2>0.4335144</H-6-2>
                <H-6-3>1.639568</H-6-3>
                <H-7-1>1.30725</H-7-1>
                <H-7-2>-2.036529</H-7-2>
                <H-7-3>-0.6569307</H-7-3>
                <H-8-1>-1.205758</H-8-1>
                <H-8-2>-0.1586589</H-8-2>
                <H-8-3>-1.487211</H-8-3>
                <H-9-1>0.5573413</H-9-1>
                <H-9-2>1.517313</H-9-2>
                <H-9-3>-2.181477</H-9-3>
                <H-10-1>0.9779573</H-10-1>
                <H-10-2>0.3859381</H-10-2>
                <H-10-3>-1.159264</H-10-3>
                <H-11-1>0.5601565</H-11-1>
                <H-11-2>-3.149466</H-11-2>
                <H-11-3>1.116304</H-11-3>
                <H-12-1>0.09903439</H-12-1>
                <H-12-2>0.2859824</H-12-2>
                <H-12-3>2.916409</H-12-3>
                <H-13-1>-2.07795</H-13-1>
                <H-13-2>-1.589434</H-13-2>
                <H-13-3>-0.2890137</H-13-3>
                <H-14-1>0.7440586</H-14-1>
                <H-14-2>-0.424289</H-14-2>
                <H-14-3>-1.212379</H-14-3>
                <H-15-1>-0.009760985</H-15-1>
                <H-15-2>2.487869</H-15-2>
                <H-15-3>-1.926295</H-15-3>
                <H-16-1>-1.849082</H-16-1>
                <H-16-2>-1.026119</H-16-2>
                <H-16-3>2.018205</H-16-3>
                <H-17-1>-1.193302</H-17-1>
                <H-17-2>1.317703</H-17-2>
                <H-17-3>-2.748755</H-17-3>
            </Weight>
        </Hidden>
        <Output>
            <OutputNodeCount>3</OutputNodeCount>
            <Error>0.1744679</Error>
        </Output>
    </Layer>
</NeuralNetwork>