<?xml version="1.0" encoding="utf-8"?>
<NeuralNetwork>
    <Algorithm>BP</Algorithm>
    <Layer>
        <Input>
            <InputNodeCount>34</InputNodeCount>
            <Weight>
                <I-1-1>-1.884833</I-1-1>
                <I-1-2>-0.3609842</I-1-2>
                <I-1-3>1.207305</I-1-3>
                <I-1-4>0.8035943</I-1-4>
                <I-1-5>0.1993259</I-1-5>
                <I-1-6>0.6476029</I-1-6>
                <I-1-7>-1.680632</I-1-7>
                <I-1-8>-0.06006774</I-1-8>
                <I-1-9>0.1967895</I-1-9>
                <I-1-10>-0.118381</I-1-10>
                <I-1-11>-1.005345</I-1-11>
                <I-1-12>0.7875163</I-1-12>
                <I-1-13>0.2790472</I-1-13>
                <I-1-14>-0.02550544</I-1-14>
                <I-1-15>0.999629</I-1-15>
                <I-1-16>0.3985276</I-1-16>
                <I-1-17>-0.3983648</I-1-17>
                <I-2-1>-0.02037756</I-2-1>
                <I-2-2>-0.2458396</I-2-2>
                <I-2-3>0.1440081</I-2-3>
                <I-2-4>-2.13146</I-2-4>
                <I-2-5>0.148397</I-2-5>
                <I-2-6>0.1225118</I-2-6>
                <I-2-7>-4.911153</I-2-7>
                <I-2-8>-0.02916369</I-2-8>
                <I-2-9>0.6676172</I-2-9>
                <I-2-10>-0.3421433</I-2-10>
                <I-2-11>-3.668344</I-2-11>
                <I-2-12>0.08685373</I-2-12>
                <I-2-13>-0.2553778</I-2-13>
                <I-2-14>0.3482493</I-2-14>
                <I-2-15>1.546826</I-2-15>
                <I-2-16>0.289814</I-2-16>
                <I-2-17>0.5818616</I-2-17>
                <I-3-1>0.5977592</I-3-1>
                <I-3-2>-0.0266632</I-3-2>
                <I-3-3>-0.2370659</I-3-3>
                <I-3-4>0.9599517</I-3-4>
                <I-3-5>0.1348517</I-3-5>
                <I-3-6>0.4707834</I-3-6>
                <I-3-7>1.379194</I-3-7>
                <I-3-8>0.4543194</I-3-8>
                <I-3-9>-0.2375124</I-3-9>
                <I-3-10>0.51947</I-3-10>
                <I-3-11>1.070488</I-3-11>
                <I-3-12>0.5740032</I-3-12>
                <I-3-13>0.34496</I-3-13>
                <I-3-14>-0.02825643</I-3-14>
                <I-3-15>0.2924123</I-3-15>
                <I-3-16>-0.09129549</I-3-16>
                <I-3-17>0.3276875</I-3-17>
                <I-4-1>1.481528</I-4-1>
                <I-4-2>1.224709</I-4-2>
                <I-4-3>-0.1520518</I-4-3>
                <I-4-4>-2.697712</I-4-4>
                <I-4-5>1.046675</I-4-5>
                <I-4-6>1.440848</I-4-6>
                <I-4-7>-1.487406</I-4-7>
                <I-4-8>0.8263243</I-4-8>
                <I-4-9>1.210751</I-4-9>
                <I-4-10>1.582311</I-4-10>
                <I-4-11>3.64487</I-4-11>
                <I-4-12>0.387178</I-4-12>
                <I-4-13>1.097149</I-4-13>
                <I-4-14>0.973244</I-4-14>
                <I-4-15>2.226896</I-4-15>
                <I-4-16>0.3534405</I-4-16>
                <I-4-17>1.359569</I-4-17>
                <I-5-1>-1.091621</I-5-1>
                <I-5-2>1.064692</I-5-2>
                <I-5-3>1.712023</I-5-3>
                <I-5-4>4.588403</I-5-4>
                <I-5-5>-0.1143038</I-5-5>
                <I-5-6>0.8101571</I-5-6>
                <I-5-7>3.063027</I-5-7>
                <I-5-8>-0.05139455</I-5-8>
                <I-5-9>0.03349626</I-5-9>
                <I-5-10>0.3386797</I-5-10>
                <I-5-11>3.457849</I-5-11>
                <I-5-12>-0.4309664</I-5-12>
                <I-5-13>-0.0829377</I-5-13>
                <I-5-14>-0.1311438</I-5-14>
                <I-5-15>1.128865</I-5-15>
                <I-5-16>0.4479059</I-5-16>
                <I-5-17>0.8047144</I-5-17>
                <I-6-1>1.051727</I-6-1>
                <I-6-2>0.01085866</I-6-2>
                <I-6-3>0.7240776</I-6-3>
                <I-6-4>0.4914736</I-6-4>
                <I-6-5>-0.7474763</I-6-5>
                <I-6-6>0.2067327</I-6-6>
                <I-6-7>0.6935398</I-6-7>
                <I-6-8>0.2491047</I-6-8>
                <I-6-9>0.2697581</I-6-9>
                <I-6-10>0.1799855</I-6-10>
                <I-6-11>1.380807</I-6-11>
                <I-6-12>0.1355412</I-6-12>
                <I-6-13>-0.0637396</I-6-13>
                <I-6-14>-0.04201794</I-6-14>
                <I-6-15>-0.7681928</I-6-15>
                <I-6-16>0.0123864</I-6-16>
                <I-6-17>0.8573301</I-6-17>
                <I-7-1>1.121451</I-7-1>
                <I-7-2>0.5578664</I-7-2>
                <I-7-3>2.320799</I-7-3>
                <I-7-4>-0.4124521</I-7-4>
                <I-7-5>0.1159165</I-7-5>
                <I-7-6>0.352447</I-7-6>
                <I-7-7>4.425044</I-7-7>
                <I-7-8>0.5499537</I-7-8>
                <I-7-9>1.588577</I-7-9>
                <I-7-10>-0.2710853</I-7-10>
                <I-7-11>-1.044448</I-7-11>
                <I-7-12>0.6483784</I-7-12>
                <I-7-13>0.2319215</I-7-13>
                <I-7-14>0.4587856</I-7-14>
                <I-7-15>3.269268</I-7-15>
                <I-7-16>0.6986351</I-7-16>
                <I-7-17>2.007792</I-7-17>
                <I-8-1>-0.4270441</I-8-1>
                <I-8-2>1.431336</I-8-2>
                <I-8-3>1.276352</I-8-3>
                <I-8-4>-1.532928</I-8-4>
                <I-8-5>1.616928</I-8-5>
                <I-8-6>0.05673365</I-8-6>
                <I-8-7>0.4766597</I-8-7>
                <I-8-8>0.1054524</I-8-8>
                <I-8-9>1.094958</I-8-9>
                <I-8-10>0.4666812</I-8-10>
                <I-8-11>2.566381</I-8-11>
                <I-8-12>-1.260262</I-8-12>
                <I-8-13>0.2498784</I-8-13>
                <I-8-14>0.8299252</I-8-14>
                <I-8-15>0.7251848</I-8-15>
                <I-8-16>0.02426356</I-8-16>
                <I-8-17>-1.460657</I-8-17>
                <I-9-1>0.3451936</I-9-1>
                <I-9-2>0.2386657</I-9-2>
                <I-9-3>-0.09398642</I-9-3>
                <I-9-4>-0.5690099</I-9-4>
                <I-9-5>-0.4426147</I-9-5>
                <I-9-6>0.7637604</I-9-6>
                <I-9-7>0.6654392</I-9-7>
                <I-9-8>0.7711987</I-9-8>
                <I-9-9>-1.428081</I-9-9>
                <I-9-10>1.130445</I-9-10>
                <I-9-11>2.325781</I-9-11>
                <I-9-12>1.06949</I-9-12>
                <I-9-13>0.5433094</I-9-13>
                <I-9-14>0.3640236</I-9-14>
                <I-9-15>0.3529433</I-9-15>
                <I-9-16>0.3090596</I-9-16>
                <I-9-17>-0.4530298</I-9-17>
                <I-10-1>-0.03270338</I-10-1>
                <I-10-2>-0.502407</I-10-2>
                <I-10-3>-0.3556227</I-10-3>
                <I-10-4>0.1651381</I-10-4>
                <I-10-5>-0.7820991</I-10-5>
                <I-10-6>-0.01969554</I-10-6>
                <I-10-7>0.1156925</I-10-7>
                <I-10-8>-0.2096802</I-10-8>
                <I-10-9>0.3996002</I-10-9>
                <I-10-10>-0.1917398</I-10-10>
                <I-10-11>0.233339</I-10-11>
                <I-10-12>-0.1841542</I-10-12>
                <I-10-13>-0.3939401</I-10-13>
                <I-10-14>-0.5799782</I-10-14>
                <I-10-15>-0.2932316</I-10-15>
                <I-10-16>-0.3563305</I-10-16>
                <I-10-17>0.672415</I-10-17>
                <I-11-1>-0.1650409</I-11-1>
                <I-11-2>0.09615787</I-11-2>
                <I-11-3>0.10552</I-11-3>
                <I-11-4>2.7748</I-11-4>
                <I-11-5>-1.74024</I-11-5>
                <I-11-6>-0.3096328</I-11-6>
                <I-11-7>-0.4633676</I-11-7>
                <I-11-8>-0.1852811</I-11-8>
                <I-11-9>-0.04152009</I-11-9>
                <I-11-10>0.04984732</I-11-10>
                <I-11-11>-1.48076</I-11-11>
                <I-11-12>-0.6111777</I-11-12>
                <I-11-13>-0.04327178</I-11-13>
                <I-11-14>-0.1995363</I-11-14>
                <I-11-15>1.664746</I-11-15>
                <I-11-16>0.01725245</I-11-16>
                <I-11-17>0.2866919</I-11-17>
                <I-12-1>0.5425857</I-12-1>
                <I-12-2>-0.7483997</I-12-2>
                <I-12-3>1.693899</I-12-3>
                <I-12-4>2.077123</I-12-4>
                <I-12-5>-0.8697637</I-12-5>
                <I-12-6>0.09562013</I-12-6>
                <I-12-7>1.626549</I-12-7>
                <I-12-8>0.2920252</I-12-8>
                <I-12-9>2.053342</I-12-9>
                <I-12-10>0.006944024</I-12-10>
                <I-12-11>2.884367</I-12-11>
                <I-12-12>0.01692731</I-12-12>
                <I-12-13>0.03851087</I-12-13>
                <I-12-14>-0.3290633</I-12-14>
                <I-12-15>-1.275631</I-12-15>
                <I-12-16>0.2230081</I-12-16>
                <I-12-17>1.061258</I-12-17>
                <I-13-1>-0.647006</I-13-1>
                <I-13-2>-1.784098</I-13-2>
                <I-13-3>0.392327</I-13-3>
                <I-13-4>0.3152883</I-13-4>
                <I-13-5>-1.643869</I-13-5>
                <I-13-6>-0.4558772</I-13-6>
                <I-13-7>-1.796666</I-13-7>
                <I-13-8>-0.4014799</I-13-8>
                <I-13-9>1.319392</I-13-9>
                <I-13-10>-0.1029264</I-13-10>
                <I-13-11>1.525398</I-13-11>
                <I-13-12>-0.9129745</I-13-12>
                <I-13-13>-0.4294393</I-13-13>
                <I-13-14>-0.5651665</I-13-14>
                <I-13-15>-1.051846</I-13-15>
                <I-13-16>-0.3708278</I-13-16>
                <I-13-17>-0.1729887</I-13-17>
                <I-14-1>-0.6879623</I-14-1>
                <I-14-2>-0.7299328</I-14-2>
                <I-14-3>0.8063808</I-14-3>
                <I-14-4>-0.1179198</I-14-4>
                <I-14-5>-0.8328568</I-14-5>
                <I-14-6>-0.5096662</I-14-6>
                <I-14-7>0.2358578</I-14-7>
                <I-14-8>-0.1188816</I-14-8>
                <I-14-9>0.4990169</I-14-9>
                <I-14-10>0.01067197</I-14-10>
                <I-14-11>1.992223</I-14-11>
                <I-14-12>-1.007642</I-14-12>
                <I-14-13>-0.1878179</I-14-13>
                <I-14-14>-0.3703172</I-14-14>
                <I-14-15>-0.6847525</I-14-15>
                <I-14-16>-0.4214426</I-14-16>
                <I-14-17>-0.2690043</I-14-17>
                <I-15-1>0.4484884</I-15-1>
                <I-15-2>0.2670594</I-15-2>
                <I-15-3>0.7635434</I-15-3>
                <I-15-4>-0.0532884</I-15-4>
                <I-15-5>-1.025996</I-15-5>
                <I-15-6>-0.3396792</I-15-6>
                <I-15-7>1.189219</I-15-7>
                <I-15-8>0.3245723</I-15-8>
                <I-15-9>0.3026856</I-15-9>
                <I-15-10>0.03746646</I-15-10>
                <I-15-11>-0.5744109</I-15-11>
                <I-15-12>0.04058277</I-15-12>
                <I-15-13>-0.2181716</I-15-13>
                <I-15-14>-0.1347662</I-15-14>
                <I-15-15>1.092105</I-15-15>
                <I-15-16>0.138347</I-15-16>
                <I-15-17>1.617146</I-15-17>
                <I-16-1>-1.137432</I-16-1>
                <I-16-2>-1.840575</I-16-2>
                <I-16-3>-0.229352</I-16-3>
                <I-16-4>0.3056129</I-16-4>
                <I-16-5>-0.1624483</I-16-5>
                <I-16-6>-0.2318988</I-16-6>
                <I-16-7>1.205078</I-16-7>
                <I-16-8>-0.5300935</I-16-8>
                <I-16-9>0.5222369</I-16-9>
                <I-16-10>-0.5470144</I-16-10>
                <I-16-11>-2.220821</I-16-11>
                <I-16-12>-0.1168671</I-16-12>
                <I-16-13>-0.5641195</I-16-13>
                <I-16-14>-1.006409</I-16-14>
                <I-16-15>0.3622386</I-16-15>
                <I-16-16>-1.383497</I-16-16>
                <I-16-17>0.7656715</I-16-17>
                <I-17-1>1.061185</I-17-1>
                <I-17-2>-0.07460028</I-17-2>
                <I-17-3>-0.5342433</I-17-3>
                <I-17-4>0.4159289</I-17-4>
                <I-17-5>-0.9233032</I-17-5>
                <I-17-6>-0.1162097</I-17-6>
                <I-17-7>3.118881</I-17-7>
                <I-17-8>-0.6170461</I-17-8>
                <I-17-9>-0.5599443</I-17-9>
                <I-17-10>0.0204966</I-17-10>
                <I-17-11>-2.097843</I-17-11>
                <I-17-12>-0.4850685</I-17-12>
                <I-17-13>-0.3494478</I-17-13>
                <I-17-14>-1.101697</I-17-14>
                <I-17-15>2.047258</I-17-15>
                <I-17-16>-1.277508</I-17-16>
                <I-17-17>0.5929351</I-17-17>
                <I-18-1>1.303549</I-18-1>
                <I-18-2>1.260564</I-18-2>
                <I-18-3>0.2403335</I-18-3>
                <I-18-4>0.9605916</I-18-4>
                <I-18-5>1.171976</I-18-5>
                <I-18-6>1.070979</I-18-6>
                <I-18-7>-0.5356368</I-18-7>
                <I-18-8>-0.1702912</I-18-8>
                <I-18-9>-0.04544109</I-18-9>
                <I-18-10>-1.314467</I-18-10>
                <I-18-11>-0.7436219</I-18-11>
                <I-18-12>1.04566</I-18-12>
                <I-18-13>-0.5269119</I-18-13>
                <I-18-14>0.4248173</I-18-14>
                <I-18-15>0.4972821</I-18-15>
                <I-18-16>0.5553096</I-18-16>
                <I-18-17>1.889477</I-18-17>
                <I-19-1>1.483098</I-19-1>
                <I-19-2>0.976959</I-19-2>
                <I-19-3>-0.05441942</I-19-3>
                <I-19-4>1.861761</I-19-4>
                <I-19-5>1.080525</I-19-5>
                <I-19-6>0.7985955</I-19-6>
                <I-19-7>0.8243383</I-19-7>
                <I-19-8>0.2162994</I-19-8>
                <I-19-9>0.363348</I-19-9>
                <I-19-10>-0.3331559</I-19-10>
                <I-19-11>1.061322</I-19-11>
                <I-19-12>1.106705</I-19-12>
                <I-19-13>-0.05099449</I-19-13>
                <I-19-14>0.2888962</I-19-14>
                <I-19-15>0.9647969</I-19-15>
                <I-19-16>0.2411062</I-19-16>
                <I-19-17>1.25801</I-19-17>
                <I-20-1>1.251469</I-20-1>
                <I-20-2>-0.5420256</I-20-2>
                <I-20-3>-0.219119</I-20-3>
                <I-20-4>-1.852824</I-20-4>
                <I-20-5>-0.181574</I-20-5>
                <I-20-6>-0.05672604</I-20-6>
                <I-20-7>-1.044977</I-20-7>
                <I-20-8>0.3702643</I-20-8>
                <I-20-9>0.3781117</I-20-9>
                <I-20-10>0.2406452</I-20-10>
                <I-20-11>-0.9234995</I-20-11>
                <I-20-12>0.5483087</I-20-12>
                <I-20-13>0.1046001</I-20-13>
                <I-20-14>0.2495235</I-20-14>
                <I-20-15>-0.7885565</I-20-15>
                <I-20-16>-0.1427808</I-20-16>
                <I-20-17>0.1363299</I-20-17>
                <I-21-1>1.256622</I-21-1>
                <I-21-2>-0.1684235</I-21-2>
                <I-21-3>0.5994686</I-21-3>
                <I-21-4>-2.294917</I-21-4>
                <I-21-5>0.4750978</I-21-5>
                <I-21-6>-0.1788735</I-21-6>
                <I-21-7>0.8993111</I-21-7>
                <I-21-8>0.4056753</I-21-8>
                <I-21-9>1.002535</I-21-9>
                <I-21-10>0.01511579</I-21-10>
                <I-21-11>-2.266281</I-21-11>
                <I-21-12>0.8046433</I-21-12>
                <I-21-13>0.2624466</I-21-13>
                <I-21-14>0.5950489</I-21-14>
                <I-21-15>1.330145</I-21-15>
                <I-21-16>0.1653422</I-21-16>
                <I-21-17>0.8116158</I-21-17>
                <I-22-1>0.4522331</I-22-1>
                <I-22-2>0.263417</I-22-2>
                <I-22-3>-0.05296206</I-22-3>
                <I-22-4>-2.935525</I-22-4>
                <I-22-5>1.125829</I-22-5>
                <I-22-6>-0.04172727</I-22-6>
                <I-22-7>-1.178313</I-22-7>
                <I-22-8>0.1734165</I-22-8>
                <I-22-9>0.7207552</I-22-9>
                <I-22-10>0.1440102</I-22-10>
                <I-22-11>-0.4760522</I-22-11>
                <I-22-12>-0.1397935</I-22-12>
                <I-22-13>0.3064119</I-22-13>
                <I-22-14>0.6455607</I-22-14>
                <I-22-15>0.11309</I-22-15>
                <I-22-16>0.04316354</I-22-16>
                <I-22-17>-1.032699</I-22-17>
                <I-23-1>0.8233611</I-23-1>
                <I-23-2>-0.3030586</I-23-2>
                <I-23-3>-0.5831681</I-23-3>
                <I-23-4>-2.597656</I-23-4>
                <I-23-5>0.02083763</I-23-5>
                <I-23-6>0.2317885</I-23-6>
                <I-23-7>-1.054024</I-23-7>
                <I-23-8>0.4662667</I-23-8>
                <I-23-9>-0.705745</I-23-9>
                <I-23-10>0.4209011</I-23-10>
                <I-23-11>-0.360883</I-23-11>
                <I-23-12>0.8102072</I-23-12>
                <I-23-13>0.4031227</I-23-13>
                <I-23-14>0.3026281</I-23-14>
                <I-23-15>-0.2480059</I-23-15>
                <I-23-16>0.1105644</I-23-16>
                <I-23-17>-0.4238807</I-23-17>
                <I-24-1>0.00767199</I-24-1>
                <I-24-2>0.6285481</I-24-2>
                <I-24-3>0.441127</I-24-3>
                <I-24-4>2.950416</I-24-4>
                <I-24-5>-0.6080917</I-24-5>
                <I-24-6>0.1000462</I-24-6>
                <I-24-7>-0.4190743</I-24-7>
                <I-24-8>0.3243934</I-24-8>
                <I-24-9>-0.5211178</I-24-9>
                <I-24-10>0.3115876</I-24-10>
                <I-24-11>-1.504426</I-24-11>
                <I-24-12>-0.08703264</I-24-12>
                <I-24-13>0.5407041</I-24-13>
                <I-24-14>0.5504067</I-24-14>
                <I-24-15>1.968032</I-24-15>
                <I-24-16>0.5835852</I-24-16>
                <I-24-17>-0.165698</I-24-17>
                <I-25-1>0.605267</I-25-1>
                <I-25-2>-0.4259984</I-25-2>
                <I-25-3>2.299725</I-25-3>
                <I-25-4>2.09234</I-25-4>
                <I-25-5>0.2323393</I-25-5>
                <I-25-6>0.06531677</I-25-6>
                <I-25-7>1.520753</I-25-7>
                <I-25-8>0.601721</I-25-8>
                <I-25-9>1.733736</I-25-9>
                <I-25-10>0.4486742</I-25-10>
                <I-25-11>2.511504</I-25-11>
                <I-25-12>0.3910633</I-25-12>
                <I-25-13>0.4624523</I-25-13>
                <I-25-14>0.3708606</I-25-14>
                <I-25-15>-0.6822937</I-25-15>
                <I-25-16>0.5293671</I-25-16>
                <I-25-17>0.8589782</I-25-17>
                <I-26-1>-0.6041859</I-26-1>
                <I-26-2>-1.231566</I-26-2>
                <I-26-3>0.7979298</I-26-3>
                <I-26-4>0.3801832</I-26-4>
                <I-26-5>-0.6316659</I-26-5>
                <I-26-6>-0.2861646</I-26-6>
                <I-26-7>-1.652197</I-26-7>
                <I-26-8>0.1682101</I-26-8>
                <I-26-9>1.029874</I-26-9>
                <I-26-10>0.4288162</I-26-10>
                <I-26-11>1.362084</I-26-11>
                <I-26-12>-0.4388313</I-26-12>
                <I-26-13>0.1545001</I-26-13>
                <I-26-14>0.364747</I-26-14>
                <I-26-15>-0.4985706</I-26-15>
                <I-26-16>0.2455108</I-26-16>
                <I-26-17>-0.5754036</I-26-17>
                <I-27-1>-0.5053003</I-27-1>
                <I-27-2>-0.3375382</I-27-2>
                <I-27-3>1.321914</I-27-3>
                <I-27-4>-0.003066721</I-27-4>
                <I-27-5>0.2392495</I-27-5>
                <I-27-6>-0.04998034</I-27-6>
                <I-27-7>0.02018434</I-27-7>
                <I-27-8>0.3607935</I-27-8>
                <I-27-9>-0.05054602</I-27-9>
                <I-27-10>0.4524179</I-27-10>
                <I-27-11>1.978733</I-27-11>
                <I-27-12>-0.5234947</I-27-12>
                <I-27-13>0.4561297</I-27-13>
                <I-27-14>0.3496174</I-27-14>
                <I-27-15>-0.2015158</I-27-15>
                <I-27-16>0.1948892</I-27-16>
                <I-27-17>-0.8314176</I-27-17>
                <I-28-1>-0.5829644</I-28-1>
                <I-28-2>-0.8738231</I-28-2>
                <I-28-3>-0.3964309</I-28-3>
                <I-28-4>0.4395099</I-28-4>
                <I-28-5>0.676743</I-28-5>
                <I-28-6>0.1388963</I-28-6>
                <I-28-7>0.06779509</I-28-7>
                <I-28-8>-0.2573381</I-28-8>
                <I-28-9>0.1747616</I-28-9>
                <I-28-10>-0.1172731</I-28-10>
                <I-28-11>-0.7781979</I-28-11>
                <I-28-12>-0.003721702</I-28-12>
                <I-28-13>-0.1829997</I-28-13>
                <I-28-14>-0.3258492</I-28-14>
                <I-28-15>-0.1200048</I-28-15>
                <I-28-16>-0.5459983</I-28-16>
                <I-28-17>-0.2707156</I-28-17>
                <I-29-1>0.3663602</I-29-1>
                <I-29-2>-0.125827</I-29-2>
                <I-29-3>-0.6738889</I-29-3>
                <I-29-4>0.4596184</I-29-4>
                <I-29-5>0.4113474</I-29-5>
                <I-29-6>0.2617359</I-29-6>
                <I-29-7>1.199776</I-29-7>
                <I-29-8>-0.1457993</I-29-8>
                <I-29-9>-0.4662974</I-29-9>
                <I-29-10>0.3115124</I-29-10>
                <I-29-11>-0.7064906</I-29-11>
                <I-29-12>-0.1828333</I-29-12>
                <I-29-13>0.03936018</I-29-13>
                <I-29-14>-0.3384745</I-29-14>
                <I-29-15>0.6775171</I-29-15>
                <I-29-16>-0.7028902</I-29-16>
                <I-29-17>-0.4320885</I-29-17>
                <I-30-1>0.402467</I-30-1>
                <I-30-2>0.7668603</I-30-2>
                <I-30-3>-0.07159452</I-30-3>
                <I-30-4>0.6018795</I-30-4>
                <I-30-5>1.304039</I-30-5>
                <I-30-6>0.7603698</I-30-6>
                <I-30-7>-0.5375372</I-30-7>
                <I-30-8>0.1375633</I-30-8>
                <I-30-9>-0.1640536</I-30-9>
                <I-30-10>-0.4959685</I-30-10>
                <I-30-11>0.05541487</I-30-11>
                <I-30-12>0.5174822</I-30-12>
                <I-30-13>-0.224377</I-30-13>
                <I-30-14>0.2297991</I-30-14>
                <I-30-15>-0.2424861</I-30-15>
                <I-30-16>0.4186153</I-30-16>
                <I-30-17>0.2662208</I-30-17>
                <I-31-1>0.7073259</I-31-1>
                <I-31-2>0.4549475</I-31-2>
                <I-31-3>-0.2739559</I-31-3>
                <I-31-4>1.207239</I-31-4>
                <I-31-5>1.328367</I-31-5>
                <I-31-6>0.8391549</I-31-6>
                <I-31-7>0.0774572</I-31-7>
                <I-31-8>0.3108544</I-31-8>
                <I-31-9>0.1153285</I-31-9>
                <I-31-10>0.1146971</I-31-10>
                <I-31-11>0.9928106</I-31-11>
                <I-31-12>0.5280581</I-31-12>
                <I-31-13>0.1885989</I-31-13>
                <I-31-14>0.3018316</I-31-14>
                <I-31-15>0.2762784</I-31-15>
                <I-31-16>0.1213888</I-31-16>
                <I-31-17>-0.0245522</I-31-17>
                <I-32-1>0.2596436</I-32-1>
                <I-32-2>0.7970008</I-32-2>
                <I-32-3>1.79692</I-32-3>
                <I-32-4>-0.8939566</I-32-4>
                <I-32-5>1.343417</I-32-5>
                <I-32-6>0.3857154</I-32-6>
                <I-32-7>3.688414</I-32-7>
                <I-32-8>0.5509264</I-32-8>
                <I-32-9>1.728758</I-32-9>
                <I-32-10>-0.3310868</I-32-10>
                <I-32-11>-2.49524</I-32-11>
                <I-32-12>0.6328229</I-32-12>
                <I-32-13>0.2756632</I-32-13>
                <I-32-14>0.7107826</I-32-14>
                <I-32-15>3.997768</I-32-15>
                <I-32-16>0.9062316</I-32-16>
                <I-32-17>1.43055</I-32-17>
                <I-33-1>0.5575995</I-33-1>
                <I-33-2>-1.124698</I-33-2>
                <I-33-3>1.848253</I-33-3>
                <I-33-4>-0.6174199</I-33-4>
                <I-33-5>0.8704662</I-33-5>
                <I-33-6>0.4152471</I-33-6>
                <I-33-7>2.269371</I-33-7>
                <I-33-8>0.3573116</I-33-8>
                <I-33-9>2.404727</I-33-9>
                <I-33-10>0.2471522</I-33-10>
                <I-33-11>4.115933</I-33-11>
                <I-33-12>0.7381039</I-33-12>
                <I-33-13>0.1517867</I-33-13>
                <I-33-14>0.1204557</I-33-14>
                <I-33-15>-2.519941</I-33-15>
                <I-33-16>0.2257636</I-33-16>
                <I-33-17>1.144693</I-33-17>
                <I-34-1>2.208598</I-34-1>
                <I-34-2>1.726037</I-34-2>
                <I-34-3>-0.2048994</I-34-3>
                <I-34-4>0.3403548</I-34-4>
                <I-34-5>-0.3308546</I-34-5>
                <I-34-6>0.3157161</I-34-6>
                <I-34-7>2.073987</I-34-7>
                <I-34-8>0.1330572</I-34-8>
                <I-34-9>-1.182155</I-34-9>
                <I-34-10>0.7774838</I-34-10>
                <I-34-11>0.2931053</I-34-11>
                <I-34-12>-0.2782211</I-34-12>
                <I-34-13>0.3046737</I-34-13>
                <I-34-14>0.03470467</I-34-14>
                <I-34-15>1.755122</I-34-15>
                <I-34-16>0.1860262</I-34-16>
                <I-34-17>-0.1427242</I-34-17>
            </Weight>
        </Input>
        <Hidden>
            <HiddenNodeCount>17</HiddenNodeCount>
            <Weight>
                <H-1-1>-0.08375156</H-1-1>
                <H-1-2>0.8740537</H-1-2>
                <H-1-3>1.580096</H-1-3>
                <H-2-1>-1.467432</H-2-1>
                <H-2-2>3.50771</H-2-2>
                <H-2-3>1.252102</H-2-3>
                <H-3-1>-1.783109</H-3-1>
                <H-3-2>1.545722</H-3-2>
                <H-3-3>-4.42744</H-3-3>
                <H-4-1>2.089282</H-4-1>
                <H-4-2>-1.920199</H-4-2>
                <H-4-3>-0.06344578</H-4-3>
                <H-5-1>1.24148</H-5-1>
                <H-5-2>1.598081</H-5-2>
                <H-5-3>1.446556</H-5-3>
                <H-6-1>-0.1520128</H-6-1>
                <H-6-2>-1.111247</H-6-2>
                <H-6-3>-1.56025</H-6-3>
                <H-7-1>2.623385</H-7-1>
                <H-7-2>-2.635703</H-7-2>
                <H-7-3>2.425947</H-7-3>
                <H-8-1>0.2219194</H-8-1>
                <H-8-2>-0.3505228</H-8-2>
                <H-8-3>0.07047881</H-8-3>
                <H-9-1>-1.827322</H-9-1>
                <H-9-2>2.43057</H-9-2>
                <H-9-3>0.968132</H-9-3>
                <H-10-1>0.33643</H-10-1>
                <H-10-2>-0.7213788</H-10-2>
                <H-10-3>1.424724</H-10-3>
                <H-11-1>3.479047</H-11-1>
                <H-11-2>-3.716308</H-11-2>
                <H-11-3>2.614927</H-11-3>
                <H-12-1>-0.6554332</H-12-1>
                <H-12-2>-2.410083</H-12-2>
                <H-12-3>-0.7604771</H-12-3>
                <H-13-1>0.3244963</H-13-1>
                <H-13-2>-0.3931288</H-13-2>
                <H-13-3>0.5496941</H-13-3>
                <H-14-1>-0.2978354</H-14-1>
                <H-14-2>0.7295973</H-14-2>
                <H-14-3>0.2426962</H-14-3>
                <H-15-1>2.523853</H-15-1>
                <H-15-2>-2.283037</H-15-2>
                <H-15-3>-2.476101</H-15-3>
                <H-16-1>-1.06851</H-16-1>
                <H-16-2>0.8620175</H-16-2>
                <H-16-3>-0.8146295</H-16-3>
                <H-17-1>-2.404662</H-17-1>
                <H-17-2>1.752817</H-17-2>
                <H-17-3>0.3290988</H-17-3>
            </Weight>
        </Hidden>
        <Output>
            <OutputNodeCount>3</OutputNodeCount>
            <Error>0.1507803</Error>
        </Output>
    </Layer>
</NeuralNetwork>