<?xml version="1.0" encoding="utf-8"?>
<NeuralNetwork>
    <Algorithm>BP</Algorithm>
    <Layer>
        <Input>
            <InputNodeCount>15</InputNodeCount>
            <Weight>
                <I-1-1>0.4161452</I-1-1>
                <I-1-2>2.351268</I-1-2>
                <I-1-3>-5.197029</I-1-3>
                <I-1-4>1.689792</I-1-4>
                <I-1-5>4.16044</I-1-5>
                <I-1-6>-1.949561</I-1-6>
                <I-1-7>-1.987275</I-1-7>
                <I-2-1>-0.1242507</I-2-1>
                <I-2-2>1.221842</I-2-2>
                <I-2-3>-2.422399</I-2-3>
                <I-2-4>-0.8525171</I-2-4>
                <I-2-5>4.215363</I-2-5>
                <I-2-6>1.912684</I-2-6>
                <I-2-7>9.866482</I-2-7>
                <I-3-1>-2.257946</I-3-1>
                <I-3-2>-5.654742</I-3-2>
                <I-3-3>-8.390883</I-3-3>
                <I-3-4>5.288887</I-3-4>
                <I-3-5>-10.4251</I-3-5>
                <I-3-6>0.2680511</I-3-6>
                <I-3-7>-7.375429</I-3-7>
                <I-4-1>-0.9630136</I-4-1>
                <I-4-2>9.583212</I-4-2>
                <I-4-3>-2.527889</I-4-3>
                <I-4-4>-2.336762</I-4-4>
                <I-4-5>1.0145</I-4-5>
                <I-4-6>0.8623563</I-4-6>
                <I-4-7>8.65903</I-4-7>
                <I-5-1>-3.638312</I-5-1>
                <I-5-2>2.225285</I-5-2>
                <I-5-3>-11.98284</I-5-3>
                <I-5-4>-1.515099</I-5-4>
                <I-5-5>10.34221</I-5-5>
                <I-5-6>4.105462</I-5-6>
                <I-5-7>4.485985</I-5-7>
                <I-6-1>-7.429279</I-6-1>
                <I-6-2>-2.751638</I-6-2>
                <I-6-3>0.6174157</I-6-3>
                <I-6-4>-0.558764</I-6-4>
                <I-6-5>3.39943</I-6-5>
                <I-6-6>2.501503</I-6-6>
                <I-6-7>-9.97773</I-6-7>
                <I-7-1>0.125723</I-7-1>
                <I-7-2>-2.309437</I-7-2>
                <I-7-3>-6.403356</I-7-3>
                <I-7-4>6.704305</I-7-4>
                <I-7-5>4.288603</I-7-5>
                <I-7-6>1.098939</I-7-6>
                <I-7-7>6.786607</I-7-7>
                <I-8-1>-2.783185</I-8-1>
                <I-8-2>-4.796012</I-8-2>
                <I-8-3>-10.88258</I-8-3>
                <I-8-4>7.519211</I-8-4>
                <I-8-5>-6.273653</I-8-5>
                <I-8-6>2.45374</I-8-6>
                <I-8-7>3.70546</I-8-7>
                <I-9-1>2.664366</I-9-1>
                <I-9-2>-7.914109</I-9-2>
                <I-9-3>2.898737</I-9-3>
                <I-9-4>-9.620272</I-9-4>
                <I-9-5>-1.482787</I-9-5>
                <I-9-6>-2.318739</I-9-6>
                <I-9-7>22.89147</I-9-7>
                <I-10-1>4.90102</I-10-1>
                <I-10-2>11.92778</I-10-2>
                <I-10-3>8.802921</I-10-3>
                <I-10-4>2.866532</I-10-4>
                <I-10-5>-10.74877</I-10-5>
                <I-10-6>4.165529</I-10-6>
                <I-10-7>21.56081</I-10-7>
                <I-11-1>-5.608758</I-11-1>
                <I-11-2>3.338583</I-11-2>
                <I-11-3>-15.38642</I-11-3>
                <I-11-4>12.34008</I-11-4>
                <I-11-5>-3.872702</I-11-5>
                <I-11-6>12.87449</I-11-6>
                <I-11-7>5.959667</I-11-7>
                <I-12-1>-3.175785</I-12-1>
                <I-12-2>-7.53523</I-12-2>
                <I-12-3>-6.146081</I-12-3>
                <I-12-4>1.854516</I-12-4>
                <I-12-5>-1.773388</I-12-5>
                <I-12-6>1.408481</I-12-6>
                <I-12-7>-15.17988</I-12-7>
                <I-13-1>6.050628</I-13-1>
                <I-13-2>13.08641</I-13-2>
                <I-13-3>29.39269</I-13-3>
                <I-13-4>5.884864</I-13-4>
                <I-13-5>-12.53091</I-13-5>
                <I-13-6>3.667228</I-13-6>
                <I-13-7>12.03811</I-13-7>
                <I-14-1>0.0949237</I-14-1>
                <I-14-2>-6.681432</I-14-2>
                <I-14-3>5.120489</I-14-3>
                <I-14-4>2.376192</I-14-4>
                <I-14-5>-2.627686</I-14-5>
                <I-14-6>2.729293</I-14-6>
                <I-14-7>-17.93042</I-14-7>
                <I-15-1>-1.197773</I-15-1>
                <I-15-2>-0.2653145</I-15-2>
                <I-15-3>0.2979522</I-15-3>
                <I-15-4>-0.5357305</I-15-4>
                <I-15-5>5.056845</I-15-5>
                <I-15-6>2.583612</I-15-6>
                <I-15-7>-1.806723</I-15-7>
            </Weight>
        </Input>
        <Hidden>
            <HiddenNodeCount>7</HiddenNodeCount>
            <Weight>
                <H-1-1>-2.427573</H-1-1>
                <H-1-2>3.82442</H-1-2>
                <H-1-3>9.352551</H-1-3>
                <H-2-1>8.284348</H-2-1>
                <H-2-2>-9.55181</H-2-2>
                <H-2-3>-0.3968346</H-2-3>
                <H-3-1>-0.05667895</H-3-1>
                <H-3-2>0.8828449</H-3-2>
                <H-3-3>-3.956572</H-3-3>
                <H-4-1>-5.822127</H-4-1>
                <H-4-2>-7.82914</H-4-2>
                <H-4-3>-7.215994</H-4-3>
                <H-5-1>1.72671</H-5-1>
                <H-5-2>2.111377</H-5-2>
                <H-5-3>-1.589172</H-5-3>
                <H-6-1>3.938688</H-6-1>
                <H-6-2>7.630356</H-6-2>
                <H-6-3>6.245506</H-6-3>
                <H-7-1>-4.701801</H-7-1>
                <H-7-2>5.173164</H-7-2>
                <H-7-3>-0.7333649</H-7-3>
            </Weight>
        </Hidden>
        <Output>
            <OutputNodeCount>3</OutputNodeCount>
            <Error>0.3606961</Error>
        </Output>
    </Layer>
</NeuralNetwork>