<?xml version="1.0" encoding="utf-8"?>
<NeuralNetwork>
    <Algorithm>BP</Algorithm>
    <Layer>
        <Input>
            <InputNodeCount>15</InputNodeCount>
            <Weight>
                <I-1-1>-0.6497115</I-1-1>
                <I-1-2>-0.9474103</I-1-2>
                <I-1-3>-6.409838</I-1-3>
                <I-1-4>2.772735</I-1-4>
                <I-1-5>5.400709</I-1-5>
                <I-1-6>-3.107577</I-1-6>
                <I-1-7>-4.005586</I-1-7>
                <I-2-1>1.058744</I-2-1>
                <I-2-2>-1.200615</I-2-2>
                <I-2-3>1.981753</I-2-3>
                <I-2-4>-2.259809</I-2-4>
                <I-2-5>6.289466</I-2-5>
                <I-2-6>8.204505</I-2-6>
                <I-2-7>5.160178</I-2-7>
                <I-3-1>-1.511594</I-3-1>
                <I-3-2>-1.915473</I-3-2>
                <I-3-3>-7.879797</I-3-3>
                <I-3-4>6.321269</I-3-4>
                <I-3-5>-8.660357</I-3-5>
                <I-3-6>-0.5704951</I-3-6>
                <I-3-7>0.8528968</I-3-7>
                <I-4-1>-0.5457905</I-4-1>
                <I-4-2>4.798725</I-4-2>
                <I-4-3>-2.269621</I-4-3>
                <I-4-4>-1.124511</I-4-4>
                <I-4-5>1.214785</I-4-5>
                <I-4-6>2.493021</I-4-6>
                <I-4-7>6.303765</I-4-7>
                <I-5-1>-4.18536</I-5-1>
                <I-5-2>0.3160124</I-5-2>
                <I-5-3>-6.995646</I-5-3>
                <I-5-4>0.7987345</I-5-4>
                <I-5-5>7.799415</I-5-5>
                <I-5-6>4.985222</I-5-6>
                <I-5-7>6.540803</I-5-7>
                <I-6-1>-2.840798</I-6-1>
                <I-6-2>2.01418</I-6-2>
                <I-6-3>-0.319528</I-6-3>
                <I-6-4>-1.174848</I-6-4>
                <I-6-5>1.695144</I-6-5>
                <I-6-6>1.682457</I-6-6>
                <I-6-7>-13.59116</I-6-7>
                <I-7-1>-0.2116361</I-7-1>
                <I-7-2>4.312596</I-7-2>
                <I-7-3>-4.223855</I-7-3>
                <I-7-4>7.185042</I-7-4>
                <I-7-5>4.159864</I-7-5>
                <I-7-6>-0.2356876</I-7-6>
                <I-7-7>1.88369</I-7-7>
                <I-8-1>-1.304849</I-8-1>
                <I-8-2>1.174075</I-8-2>
                <I-8-3>-10.03282</I-8-3>
                <I-8-4>5.460563</I-8-4>
                <I-8-5>-1.236732</I-8-5>
                <I-8-6>-0.03160836</I-8-6>
                <I-8-7>3.029445</I-8-7>
                <I-9-1>1.163922</I-9-1>
                <I-9-2>-0.1605062</I-9-2>
                <I-9-3>2.395154</I-9-3>
                <I-9-4>-4.942075</I-9-4>
                <I-9-5>-0.2687759</I-9-5>
                <I-9-6>3.227353</I-9-6>
                <I-9-7>14.30747</I-9-7>
                <I-10-1>0.7184976</I-10-1>
                <I-10-2>0.8221409</I-10-2>
                <I-10-3>0.7768161</I-10-3>
                <I-10-4>4.761198</I-10-4>
                <I-10-5>-4.74751</I-10-5>
                <I-10-6>3.131109</I-10-6>
                <I-10-7>5.990807</I-10-7>
                <I-11-1>-4.73225</I-11-1>
                <I-11-2>1.185658</I-11-2>
                <I-11-3>-9.961499</I-11-3>
                <I-11-4>9.497733</I-11-4>
                <I-11-5>-4.649107</I-11-5>
                <I-11-6>9.388433</I-11-6>
                <I-11-7>1.583612</I-11-7>
                <I-12-1>-1.90299</I-12-1>
                <I-12-2>-2.118926</I-12-2>
                <I-12-3>-5.521788</I-12-3>
                <I-12-4>4.582368</I-12-4>
                <I-12-5>-3.734959</I-12-5>
                <I-12-6>1.70167</I-12-6>
                <I-12-7>-3.343158</I-12-7>
                <I-13-1>5.220075</I-13-1>
                <I-13-2>5.458626</I-13-2>
                <I-13-3>22.39388</I-13-3>
                <I-13-4>5.158136</I-13-4>
                <I-13-5>-10.2099</I-13-5>
                <I-13-6>1.389561</I-13-6>
                <I-13-7>5.404444</I-13-7>
                <I-14-1>0.9214676</I-14-1>
                <I-14-2>-3.423917</I-14-2>
                <I-14-3>3.289169</I-14-3>
                <I-14-4>2.548922</I-14-4>
                <I-14-5>-3.006773</I-14-5>
                <I-14-6>1.507907</I-14-6>
                <I-14-7>-5.926045</I-14-7>
                <I-15-1>-0.7425689</I-15-1>
                <I-15-2>-1.564235</I-15-2>
                <I-15-3>4.455569</I-15-3>
                <I-15-4>0.08330036</I-15-4>
                <I-15-5>3.319342</I-15-5>
                <I-15-6>2.353409</I-15-6>
                <I-15-7>0.7449611</I-15-7>
            </Weight>
        </Input>
        <Hidden>
            <HiddenNodeCount>7</HiddenNodeCount>
            <Weight>
                <H-1-1>0.476012</H-1-1>
                <H-1-2>0.3969312</H-1-2>
                <H-1-3>11.56814</H-1-3>
                <H-2-1>5.568442</H-2-1>
                <H-2-2>-5.22375</H-2-2>
                <H-2-3>-4.115148</H-2-3>
                <H-3-1>-0.04290475</H-3-1>
                <H-3-2>1.177794</H-3-2>
                <H-3-3>-5.027334</H-3-3>
                <H-4-1>-7.880118</H-4-1>
                <H-4-2>-7.267975</H-4-2>
                <H-4-3>-5.43687</H-4-3>
                <H-5-1>1.945325</H-5-1>
                <H-5-2>3.294147</H-5-2>
                <H-5-3>-1.430723</H-5-3>
                <H-6-1>4.870082</H-6-1>
                <H-6-2>6.946521</H-6-2>
                <H-6-3>6.019037</H-6-3>
                <H-7-1>-3.771666</H-7-1>
                <H-7-2>2.561265</H-7-2>
                <H-7-3>0.7307064</H-7-3>
            </Weight>
        </Hidden>
        <Output>
            <OutputNodeCount>3</OutputNodeCount>
            <Error>0.4145411</Error>
        </Output>
    </Layer>
</NeuralNetwork>